{"version":"1.0","truncation":null,"padding":null,"added_tokens":[{"id":0,"special":true,"content":"[UNK]","single_word":false,"lstrip":false,"rstrip":false,"normalized":false},{"id":1,"special":true,"content":"[CLS]","single_word":false,"lstrip":false,"rstrip":false,"normalized":false},{"id":2,"special":true,"content":"[SEP]","single_word":false,"lstrip":false,"rstrip":false,"normalized":false},{"id":3,"special":true,"content":"[PAD]","single_word":false,"lstrip":false,"rstrip":false,"normalized":false},{"id":4,"special":true,"content":"[MASK]","single_word":false,"lstrip":false,"rstrip":false,"normalized":false}],"normalizer":null,"pre_tokenizer":{"type":"Whitespace"},"post_processor":null,"decoder":null,"model":{"type":"BPE","dropout":null,"unk_token":"[UNK]","continuing_subword_prefix":null,"end_of_word_suffix":null,"fuse_unk":false,"vocab":{"[UNK]":0,"[CLS]":1,"[SEP]":2,"[PAD]":3,"[MASK]":4,"!":5,"\"":6,"#":7,"$":8,"%":9,"&":10,"'":11,"(":12,")":13,"*":14,"+":15,",":16,"-":17,".":18,"/":19,"0":20,"1":21,"2":22,"3":23,"4":24,"5":25,"6":26,"7":27,"8":28,"9":29,":":30,";":31,"<":32,"=":33,">":34,"?":35,"@":36,"A":37,"B":38,"C":39,"D":40,"E":41,"F":42,"G":43,"H":44,"I":45,"J":46,"K":47,"L":48,"M":49,"N":50,"O":51,"P":52,"Q":53,"R":54,"S":55,"T":56,"U":57,"V":58,"W":59,"X":60,"Y":61,"Z":62,"[":63,"\\":64,"]":65,"^":66,"_":67,"`":68,"a":69,"b":70,"c":71,"d":72,"e":73,"f":74,"g":75,"h":76,"i":77,"j":78,"k":79,"l":80,"m":81,"n":82,"o":83,"p":84,"q":85,"r":86,"s":87,"t":88,"u":89,"v":90,"w":91,"x":92,"y":93,"z":94,"{":95,"}":96,"~":97,"¢":98,"¥":99,"°":100,"±":101,"²":102,"³":103,"´":104,"·":105,"¿":106,"Ä":107,"Ö":108,"×":109,"Ü":110,"ß":111,"á":112,"ä":113,"æ":114,"é":115,"ó":116,"ô":117,"ö":118,"÷":119,"ø":120,"ú":121,"ü":122,"ć":123,"č":124,"đ":125,"ř":126,"š":127,"ž":128,"ș":129,"̝":130,"Β":131,"Δ":132,"Λ":133,"Ο":134,"Ρ":135,"Φ":136,"Ω":137,"ή":138,"ί":139,"α":140,"β":141,"γ":142,"δ":143,"ε":144,"θ":145,"ι":146,"κ":147,"λ":148,"μ":149,"ν":150,"ο":151,"π":152,"ρ":153,"σ":154,"τ":155,"ψ":156,"ω":157,"ό":158,"Р":159,"С":160,"؟":161,"ὀ":162,"ῖ":163,"​":164,"‎":165,"–":166,"—":167,"―":168,"“":169,"”":170,"•":171,"…":172,"‧":173,"‰":174,"′":175,"″":176,"⁄":177,"℃":178,"℉":179,"ℓ":180,"⅓":181,"Ⅰ":182,"Ⅱ":183,"Ⅲ":184,"Ⅴ":185,"Ⅶ":186,"→":187,"−":188,"∪":189,"∼":190,"⋯":191,"␀":192,"␁":193,"─":194,"├":195,"┤":196,"╳":197,"□":198,"△":199,"▽":200,"○":201,"♭":202,"、":203,"。":204,"〃":205,"〇":206,"〈":207,"〉":208,"《":209,"》":210,"「":211,"」":212,"『":213,"』":214,"【":215,"】":216,"〔":217,"〕":218,"〜":219,"ア":220,"グ":221,"コ":222,"シ":223,"タ":224,"ハ":225,"バ":226,"ヤ":227,"リ":228,"ル":229,"ン":230,"・":231,"ㄅ":232,"ㄈ":233,"ㄎ":234,"ㄑ":235,"ㄙ":236,"ㄚ":237,"ㄞ":238,"ㄟ":239,"ㄥ":240,"ㄧ":241,"ㄨ":242,"㎝":243,"㐅":244,"䨻":245,"一":246,"丁":247,"七":248,"万":249,"丈":250,"三":251,"上":252,"下":253,"不":254,"丐":255,"丑":256,"且":257,"丕":258,"世":259,"丘":260,"丙":261,"丞":262,"丟":263,"両":264,"並":265,"丨":266,"丫":267,"中":268,"丰":269,"串":270,"丶":271,"丸":272,"丹":273,"主":274,"丿":275,"乀":276,"乁":277,"乂":278,"乃":279,"久":280,"之":281,"乍":282,"乎":283,"乏":284,"乒":285,"乖":286,"乘":287,"乙":288,"乚":289,"乜":290,"九":291,"乞":292,"也":293,"乩":294,"乳":295,"乾":296,"亂":297,"亅":298,"了":299,"予":300,"事":301,"二":302,"于":303,"云":304,"互":305,"五":306,"井":307,"亘":308,"亙":309,"些":310,"亞":311,"亟":312,"亡":313,"亢":314,"交":315,"亥":316,"亦":317,"亨":318,"享":319,"京":320,"亭":321,"亮":322,"亳":323,"亶":324,"亹":325,"人":326,"什":327,"仁":328,"仂":329,"仃":330,"仄":331,"仆":332,"仇":333,"仉":334,"今":335,"介":336,"仍":337,"仔":338,"仕":339,"他":340,"仗":341,"付":342,"仙":343,"仝":344,"仞":345,"仡":346,"代":347,"令":348,"以":349,"仰":350,"仲":351,"件":352,"价":353,"任":354,"份":355,"仿":356,"企":357,"伉":358,"伊":359,"伍":360,"伎":361,"伏":362,"伐":363,"休":364,"伕":365,"伙":366,"伝":367,"伢":368,"伯":369,"估":370,"伴":371,"伶":372,"伷":373,"伸":374,"伺":375,"似":376,"伽":377,"佁":378,"佃":379,"但":380,"佇":381,"佈":382,"佉":383,"位":384,"低":385,"住":386,"佐":387,"佑":388,"体":389,"佔":390,"何":391,"佗":392,"佘":393,"余":394,"佚":395,"佛":396,"作":397,"佝":398,"佞":399,"你":400,"佣":401,"佤":402,"佩":403,"佬":404,"佯":405,"佰":406,"佳":407,"併":408,"佶":409,"佷":410,"佻":411,"佼":412,"使":413,"侂":414,"侃":415,"侄":416,"來":417,"侈":418,"例":419,"侍":420,"侏":421,"侑":422,"侔":423,"侖":424,"侗":425,"供":426,"依":427,"侮":428,"侯":429,"侵":430,"侶":431,"侷":432,"便":433,"俁":434,"係":435,"促":436,"俄":437,"俊":438,"俎":439,"俏":440,"俑":441,"俗":442,"俘":443,"俚":444,"俛":445,"保":446,"俞":447,"俟":448,"俠":449,"信":450,"俬":451,"修":452,"俯":453,"俱":454,"俳":455,"俶":456,"俸":457,"俺":458,"俾":459,"倆":460,"倉":461,"個":462,"倌":463,"倍":464,"們":465,"倒":466,"倖":467,"倘":468,"候":469,"倚":470,"倜":471,"借":472,"倡":473,"値":474,"倥":475,"倦":476,"倨":477,"倩":478,"倪":479,"倫":480,"倭":481,"倮":482,"倻":483,"值":484,"偃":485,"假":486,"偈":487,"偉":488,"偏":489,"偕":490,"做":491,"停":492,"健":493,"側":494,"偵":495,"偶":496,"偷":497,"偽":498,"傀":499,"傅":500,"傈":501,"傍":502,"傑":503,"傒":504,"傕":505,"傖":506,"傘":507,"備":508,"傚":509,"傢":510,"傣":511,"催":512,"傭":513,"傯":514,"傲":515,"傳":516,"債":517,"傷":518,"傻":519,"傾":520,"僂":521,"僅":522,"僉":523,"働":524,"像":525,"僑":526,"僔":527,"僕":528,"僖":529,"僚":530,"僞":531,"僥":532,"僦":533,"僧":534,"僭":535,"僮":536,"僱":537,"僳":538,"僵":539,"價":540,"僻":541,"儀":542,"儁":543,"儂":544,"億":545,"儉":546,"儋":547,"儒":548,"儔":549,"儕":550,"儘":551,"償":552,"儡":553,"優":554,"儲":555,"儷":556,"儸":557,"儺":558,"儼":559,"兀":560,"允":561,"元":562,"兄":563,"充":564,"兆":565,"兇":566,"先":567,"光":568,"克":569,"兌":570,"免":571,"兒":572,"兔":573,"兗":574,"党":575,"兜":576,"入":577,"內":578,"全":579,"兩":580,"八":581,"公":582,"六":583,"兮":584,"共":585,"兵":586,"其":587,"具":588,"典":589,"兼":590,"冀":591,"冉":592,"冊":593,"再":594,"冏":595,"冑":596,"冒":597,"冕":598,"冗":599,"冠":600,"冢":601,"冤":602,"冥":603,"冪":604,"冬":605,"冰":606,"冶":607,"冷":608,"冼":609,"冽":610,"准":611,"凈":612,"凋":613,"凌":614,"凍":615,"凖":616,"凝":617,"几":618,"凡":619,"凰":620,"凱":621,"凳":622,"凶":623,"凸":624,"凹":625,"出":626,"凼":627,"函":628,"刀":629,"刁":630,"刃":631,"分":632,"切":633,"刊":634,"刎":635,"刑":636,"划":637,"列":638,"初":639,"判":640,"別":641,"刨":642,"利":643,"刪":644,"别":645,"刮":646,"到":647,"刳":648,"制":649,"刷":650,"券":651,"刺":652,"刻":653,"剃":654,"則":655,"剉":656,"削":657,"剋":658,"剌":659,"前":660,"剎":661,"剔":662,"剖":663,"剛":664,"剜":665,"剝":666,"剩":667,"剪":668,"剮":669,"副":670,"割":671,"創":672,"剷":673,"剽":674,"剿":675,"劃":676,"劇":677,"劈":678,"劉":679,"劊":680,"劍":681,"劑":682,"力":683,"功":684,"加":685,"劣":686,"助":687,"努":688,"劫":689,"劭":690,"劻":691,"劼":692,"劾":693,"勁":694,"勃":695,"勅":696,"勇":697,"勉":698,"勐":699,"勒":700,"動":701,"勖":702,"勗":703,"勘":704,"務":705,"勛":706,"勝":707,"勞":708,"募":709,"勢":710,"勣":711,"勤":712,"勦":713,"勰":714,"勱":715,"勳":716,"勵":717,"勷":718,"勸":719,"勺":720,"勻":721,"勾":722,"勿":723,"包":724,"匆":725,"匈":726,"匍":727,"匐":728,"匕":729,"化":730,"北":731,"匙":732,"匝":733,"匠":734,"匡":735,"匣":736,"匪":737,"匯":738,"匱":739,"匹":740,"匾":741,"匿":742,"區":743,"十":744,"千":745,"卅":746,"升":747,"午":748,"卉":749,"半":750,"卍":751,"卑":752,"卒":753,"卓":754,"協":755,"南":756,"博":757,"卜":758,"卞":759,"占":760,"卡":761,"卦":762,"卯":763,"印":764,"危":765,"即":766,"卵":767,"卷":768,"卸":769,"卻":770,"卿":771,"厂":772,"厄":773,"厘":774,"厙":775,"厚":776,"厝":777,"原":778,"厥":779,"厭":780,"厲":781,"去":782,"參":783,"又":784,"叉":785,"及":786,"友":787,"反":788,"发":789,"叔":790,"取":791,"受":792,"叛":793,"叟":794,"叡":795,"叢":796,"口":797,"古":798,"句":799,"另":800,"叨":801,"叩":802,"只":803,"叫":804,"召":805,"叭":806,"叮":807,"可":808,"台":809,"叱":810,"史":811,"右":812,"叵":813,"司":814,"叻":815,"叼":816,"吁":817,"吃":818,"各":819,"吆":820,"合":821,"吉":822,"吊":823,"吋":824,"同":825,"名":826,"后":827,"吏":828,"吐":829,"向":830,"吒":831,"君":832,"吝":833,"吞":834,"吟":835,"吠":836,"吡":837,"否":838,"吧":839,"吩":840,"含":841,"吭":842,"吮":843,"吳":844,"吵":845,"吶":846,"吸":847,"吹":848,"吻":849,"吼":850,"吾":851,"呀":852,"呂":853,"呆":854,"呈":855,"呉":856,"告":857,"呎":858,"呢":859,"呤":860,"周":861,"呱":862,"味":863,"呵":864,"呻":865,"呼":866,"命":867,"咀":868,"咂":869,"咄":870,"咆":871,"咇":872,"咋":873,"和":874,"咎":875,"咐":876,"咒":877,"咕":878,"咖":879,"咚":880,"咥":881,"咧":882,"咨":883,"咩":884,"咪":885,"咫":886,"咬":887,"咭":888,"咯":889,"咱":890,"咳":891,"咸":892,"咻":893,"咽":894,"咾":895,"哀":896,"品":897,"哄":898,"哇":899,"哈":900,"哉":901,"哎":902,"哏":903,"員":904,"哥":905,"哦":906,"哨":907,"哩":908,"哪":909,"哭":910,"哮":911,"哲":912,"哺":913,"哼":914,"唁":915,"唄":916,"唆":917,"唇":918,"唉":919,"唎":920,"唐":921,"唑":922,"唧":923,"唬":924,"售":925,"唯":926,"唱":927,"唸":928,"唾":929,"啃":930,"啄":931,"商":932,"啊":933,"問":934,"啓":935,"啕":936,"啖":937,"啜":938,"啞":939,"啟":940,"啡":941,"啤":942,"啥":943,"啦":944,"啫":945,"啵":946,"啶":947,"啻":948,"啼":949,"喀":950,"喂":951,"喃":952,"善":953,"喆":954,"喇":955,"喉":956,"喊":957,"喋":958,"喔":959,"喘":960,"喙":961,"喚":962,"喜":963,"喝":964,"喧":965,"喪":966,"喫":967,"喬":968,"單":969,"喱":970,"喲":971,"喻":972,"嗄":973,"嗅":974,"嗇":975,"嗎":976,"嗔":977,"嗚":978,"嗜":979,"嗝":980,"嗟":981,"嗣":982,"嗧":983,"嗨":984,"嗯":985,"嗽":986,"嘆":987,"嘈":988,"嘉":989,"嘌":990,"嘎":991,"嘒":992,"嘔":993,"嘗":994,"嘛":995,"嘜":996,"嘟":997,"嘧":998,"嘩":999,"嘮":1000,"嘯":1001,"嘰":1002,"嘲":1003,"嘴":1004,"嘶":1005,"嘻":1006,"嘿":1007,"噁":1008,"噓":1009,"噗":1010,"噝":1011,"噠":1012,"噤":1013,"器":1014,"噩":1015,"噪":1016,"噬":1017,"噲":1018,"噴":1019,"噶":1020,"噸":1021,"噹":1022,"噻":1023,"嚀":1024,"嚇":1025,"嚎":1026,"嚏":1027,"嚐":1028,"嚓":1029,"嚕":1030,"嚗":1031,"嚥":1032,"嚨":1033,"嚮":1034,"嚳":1035,"嚴":1036,"嚷":1037,"嚼":1038,"囀":1039,"囂":1040,"囃":1041,"囊":1042,"囍":1043,"囑":1044,"囗":1045,"囚":1046,"四":1047,"囝":1048,"回":1049,"囟":1050,"因":1051,"囤":1052,"囧":1053,"囪":1054,"困":1055,"囱":1056,"固":1057,"国":1058,"囿":1059,"圀":1060,"圃":1061,"圈":1062,"國":1063,"圍":1064,"圏":1065,"園":1066,"圓":1067,"圖":1068,"團":1069,"圜":1070,"土":1071,"在":1072,"圩":1073,"圪":1074,"圭":1075,"圮":1076,"地":1077,"圳":1078,"圻":1079,"圾":1080,"址":1081,"坂":1082,"均":1083,"坊":1084,"坌":1085,"坍":1086,"坎":1087,"坐":1088,"坑":1089,"坡":1090,"坤":1091,"坦":1092,"坨":1093,"坩":1094,"坪":1095,"坯":1096,"坳":1097,"坵":1098,"坻":1099,"垂":1100,"垃":1101,"型":1102,"垌":1103,"垓":1104,"垕":1105,"垛":1106,"垠":1107,"垢":1108,"垣":1109,"垮":1110,"垿":1111,"埂":1112,"埃":1113,"埇":1114,"埋":1115,"城":1116,"埔":1117,"埕":1118,"埗":1119,"域":1120,"埠":1121,"埡":1122,"埤":1123,"埭":1124,"埴":1125,"執":1126,"埸":1127,"培":1128,"基":1129,"埻":1130,"埼":1131,"堀":1132,"堂":1133,"堃":1134,"堅":1135,"堆":1136,"堇":1137,"堉":1138,"堊":1139,"堙":1140,"堝":1141,"堡":1142,"堤":1143,"堪":1144,"堯":1145,"堰":1146,"報":1147,"場":1148,"堵":1149,"塊":1150,"塌":1151,"塍":1152,"塑":1153,"塔":1154,"塗":1155,"塘":1156,"塚":1157,"塞":1158,"塢":1159,"塤":1160,"填":1161,"塬":1162,"塭":1163,"塱":1164,"塵":1165,"塹":1166,"塽":1167,"塾":1168,"墁":1169,"境":1170,"墅":1171,"墈":1172,"墉":1173,"墊":1174,"墓":1175,"墘":1176,"墜":1177,"增":1178,"墟":1179,"墣":1180,"墨":1181,"墩":1182,"墬":1183,"墮":1184,"墳":1185,"墻":1186,"墾":1187,"壁":1188,"壅":1189,"壇":1190,"壊":1191,"壑":1192,"壓":1193,"壕":1194,"壘":1195,"壙":1196,"壞":1197,"壟":1198,"壠":1199,"壢":1200,"壤":1201,"壩":1202,"士":1203,"壬":1204,"壯":1205,"壹":1206,"壺":1207,"壽":1208,"夀":1209,"夏":1210,"夔":1211,"夕":1212,"外":1213,"夙":1214,"多":1215,"夜":1216,"够":1217,"夠":1218,"夢":1219,"夥":1220,"大":1221,"天":1222,"太":1223,"夫":1224,"夭":1225,"央":1226,"夯":1227,"失":1228,"头":1229,"夷":1230,"夸":1231,"夾":1232,"奄":1233,"奇":1234,"奈":1235,"奉":1236,"奎":1237,"奏":1238,"奐":1239,"契":1240,"奔":1241,"奕":1242,"套":1243,"奘":1244,"奚":1245,"奠":1246,"奢":1247,"奧":1248,"奪":1249,"奬":1250,"奭":1251,"奮":1252,"女":1253,"奴":1254,"奶":1255,"奸":1256,"她":1257,"好":1258,"妁":1259,"如":1260,"妃":1261,"妄":1262,"妊":1263,"妍":1264,"妒":1265,"妓":1266,"妖":1267,"妙":1268,"妝":1269,"妞":1270,"妣":1271,"妤":1272,"妥":1273,"妨":1274,"妮":1275,"妯":1276,"妲":1277,"妳":1278,"妹":1279,"妻":1280,"妾":1281,"姆":1282,"姊":1283,"始":1284,"姐":1285,"姑":1286,"姒":1287,"姓":1288,"委":1289,"姚":1290,"姜":1291,"姥":1292,"姦":1293,"姨":1294,"姪":1295,"姫":1296,"姬":1297,"姵":1298,"姻":1299,"姿":1300,"威":1301,"娃":1302,"娌":1303,"娑":1304,"娘":1305,"娛":1306,"娜":1307,"娟":1308,"娠":1309,"娣":1310,"娥":1311,"娩":1312,"娳":1313,"娶":1314,"娼":1315,"婁":1316,"婆":1317,"婉":1318,"婕":1319,"婚":1320,"婢":1321,"婦":1322,"婪":1323,"婭":1324,"婷":1325,"婺":1326,"婿":1327,"媒":1328,"媚":1329,"媛":1330,"媞":1331,"媧":1332,"媯":1333,"媲":1334,"媳":1335,"媽":1336,"媾":1337,"嫁":1338,"嫂":1339,"嫄":1340,"嫉":1341,"嫌":1342,"嫖":1343,"嫗":1344,"嫘":1345,"嫡":1346,"嫣":1347,"嫦":1348,"嫩":1349,"嫫":1350,"嫵":1351,"嫺":1352,"嫻":1353,"嬈":1354,"嬉":1355,"嬌":1356,"嬗":1357,"嬤":1358,"嬪":1359,"嬰":1360,"嬴":1361,"嬸":1362,"孀":1363,"孃":1364,"孌":1365,"子":1366,"孑":1367,"孓":1368,"孔":1369,"孕":1370,"字":1371,"存":1372,"孚":1373,"孛":1374,"孜":1375,"孝":1376,"孟":1377,"孢":1378,"季":1379,"孤":1380,"学":1381,"孩":1382,"孫":1383,"孰":1384,"孱":1385,"孳":1386,"孵":1387,"學":1388,"孺":1389,"孻":1390,"孽":1391,"孿":1392,"它":1393,"宅":1394,"宇":1395,"守":1396,"安":1397,"宋":1398,"完":1399,"宏":1400,"宓":1401,"宕":1402,"宗":1403,"官":1404,"宙":1405,"定":1406,"宛":1407,"宜":1408,"客":1409,"宣":1410,"室":1411,"宥":1412,"宦":1413,"宮":1414,"宰":1415,"害":1416,"宴":1417,"宵":1418,"家":1419,"宸":1420,"容":1421,"宿":1422,"寀":1423,"寂":1424,"寄":1425,"寅":1426,"密":1427,"寇":1428,"富":1429,"寐":1430,"寒":1431,"寓":1432,"寘":1433,"寛":1434,"寞":1435,"察":1436,"寡":1437,"寢":1438,"寥":1439,"實":1440,"寧":1441,"寨":1442,"審":1443,"寫":1444,"寬":1445,"寮":1446,"寰":1447,"寳":1448,"寵":1449,"寶":1450,"寸":1451,"寺":1452,"封":1453,"専":1454,"射":1455,"將":1456,"專":1457,"尉":1458,"尊":1459,"尋":1460,"對":1461,"導":1462,"小":1463,"少":1464,"尕":1465,"尖":1466,"尚":1467,"尢":1468,"尤":1469,"尬":1470,"就":1471,"尷":1472,"尸":1473,"尹":1474,"尺":1475,"尼":1476,"尾":1477,"尿":1478,"局":1479,"屁":1480,"居":1481,"屆":1482,"屇":1483,"屈":1484,"屋":1485,"屌":1486,"屍":1487,"屎":1488,"屏":1489,"屐":1490,"屑":1491,"展":1492,"屠":1493,"屢":1494,"層":1495,"履":1496,"屬":1497,"屭":1498,"屯":1499,"山":1500,"屹":1501,"屻":1502,"岀":1503,"岌":1504,"岐":1505,"岑":1506,"岔":1507,"岡":1508,"岢":1509,"岩":1510,"岫":1511,"岬":1512,"岭":1513,"岱":1514,"岳":1515,"岷":1516,"岸":1517,"峇":1518,"峋":1519,"峒":1520,"峙":1521,"峠":1522,"峡":1523,"峨":1524,"峪":1525,"峭":1526,"峯":1527,"峰":1528,"峴":1529,"島":1530,"峻":1531,"峽":1532,"崁":1533,"崇":1534,"崍":1535,"崎":1536,"崑":1537,"崔":1538,"崖":1539,"崗":1540,"崘":1541,"崙":1542,"崛":1543,"崤":1544,"崧":1545,"崩":1546,"崱":1547,"崴":1548,"崽":1549,"嵇":1550,"嵊":1551,"嵋":1552,"嵌":1553,"嵐":1554,"嵙":1555,"嵩":1556,"嵬":1557,"嵯":1558,"嶂":1559,"嶄":1560,"嶇":1561,"嶋":1562,"嶗":1563,"嶙":1564,"嶝":1565,"嶠":1566,"嶲":1567,"嶷":1568,"嶺":1569,"嶼":1570,"嶽":1571,"巍":1572,"巒":1573,"巔":1574,"巖":1575,"川":1576,"州":1577,"巡":1578,"巢":1579,"工":1580,"左":1581,"巧":1582,"巨":1583,"巫":1584,"差":1585,"巰":1586,"己":1587,"已":1588,"巳":1589,"巴":1590,"巷":1591,"巽":1592,"巾":1593,"巿":1594,"市":1595,"布":1596,"帆":1597,"帊":1598,"希":1599,"帑":1600,"帕":1601,"帖":1602,"帘":1603,"帙":1604,"帚":1605,"帛":1606,"帝":1607,"帡":1608,"帥":1609,"師":1610,"席":1611,"帯":1612,"帳":1613,"帶":1614,"帷":1615,"常":1616,"帽":1617,"幀":1618,"幅":1619,"幇":1620,"幌":1621,"幔":1622,"幕":1623,"幗":1624,"幛":1625,"幞":1626,"幟":1627,"幡":1628,"幢":1629,"幣":1630,"幪":1631,"幫":1632,"干":1633,"平":1634,"年":1635,"并":1636,"幷":1637,"幸":1638,"幹":1639,"幺":1640,"幻":1641,"幼":1642,"幽":1643,"幾":1644,"広":1645,"庄":1646,"庇":1647,"床":1648,"庋":1649,"序":1650,"底":1651,"庖":1652,"店":1653,"庚":1654,"府":1655,"庠":1656,"庥":1657,"度":1658,"座":1659,"庫":1660,"庭":1661,"庲":1662,"庵":1663,"庶":1664,"康":1665,"庸":1666,"庾":1667,"廁":1668,"廂":1669,"廄":1670,"廆":1671,"廈":1672,"廉":1673,"廊":1674,"廓":1675,"廕":1676,"廖":1677,"廚":1678,"廛":1679,"廝":1680,"廟":1681,"廠":1682,"廡":1683,"廢":1684,"廣":1685,"廨":1686,"廩":1687,"廬":1688,"廳":1689,"延":1690,"廷":1691,"建":1692,"廿":1693,"弁":1694,"弄":1695,"弈":1696,"弊":1697,"弋":1698,"式":1699,"弒":1700,"弓":1701,"弔":1702,"引":1703,"弗":1704,"弘":1705,"弛":1706,"弟":1707,"弦":1708,"弧":1709,"弩":1710,"弭":1711,"弱":1712,"弳":1713,"張":1714,"強":1715,"强":1716,"弼":1717,"彀":1718,"彆":1719,"彈":1720,"彌":1721,"彎":1722,"彔":1723,"彖":1724,"彗":1725,"彘":1726,"彙":1727,"彝":1728,"形":1729,"彤":1730,"彥":1731,"彧":1732,"彩":1733,"彪":1734,"彬":1735,"彭":1736,"彰":1737,"影":1738,"彷":1739,"役":1740,"彼":1741,"彿":1742,"往":1743,"征":1744,"徂":1745,"待":1746,"徇":1747,"很":1748,"徊":1749,"律":1750,"後":1751,"徐":1752,"徑":1753,"徒":1754,"得":1755,"徘":1756,"徙":1757,"從":1758,"徠":1759,"御":1760,"徨":1761,"復":1762,"循":1763,"徬":1764,"徭":1765,"微":1766,"徴":1767,"徵":1768,"德":1769,"徹":1770,"徽":1771,"心":1772,"必":1773,"忉":1774,"忌":1775,"忍":1776,"忒":1777,"忖":1778,"志":1779,"忘":1780,"忙":1781,"忚":1782,"忝":1783,"忞":1784,"忠":1785,"忡":1786,"忤":1787,"快":1788,"忱":1789,"念":1790,"忻":1791,"忽":1792,"忿":1793,"怍":1794,"怎":1795,"怏":1796,"怒":1797,"怔":1798,"怕":1799,"怖":1800,"怛":1801,"思":1802,"怠":1803,"怡":1804,"急":1805,"性":1806,"怨":1807,"怪":1808,"怯":1809,"恁":1810,"恂":1811,"恃":1812,"恆":1813,"恍":1814,"恐":1815,"恒":1816,"恕":1817,"恙":1818,"恢":1819,"恣":1820,"恤":1821,"恥":1822,"恨":1823,"恩":1824,"恪":1825,"恫":1826,"恬":1827,"恭":1828,"息":1829,"恰":1830,"恿":1831,"悄":1832,"悅":1833,"悉":1834,"悌":1835,"悍":1836,"悔":1837,"悖":1838,"悚":1839,"悛":1840,"悝":1841,"悟":1842,"悠":1843,"患":1844,"您":1845,"悲":1846,"悴":1847,"悵":1848,"悶":1849,"悸":1850,"悼":1851,"悽":1852,"情":1853,"惆":1854,"惇":1855,"惑":1856,"惕":1857,"惘":1858,"惜":1859,"惟":1860,"惠":1861,"惡":1862,"惰":1863,"惱":1864,"惲":1865,"想":1866,"惶":1867,"惹":1868,"惻":1869,"愁":1870,"愃":1871,"愆":1872,"愈":1873,"愉":1874,"愍":1875,"愎":1876,"意":1877,"愔":1878,"愕":1879,"愚":1880,"愛":1881,"感":1882,"愧":1883,"愨":1884,"愬":1885,"愷":1886,"愾":1887,"愿":1888,"慄":1889,"慈":1890,"態":1891,"慌":1892,"慎":1893,"慓":1894,"慕":1895,"慘":1896,"慚":1897,"慢":1898,"慣":1899,"慤":1900,"慥":1901,"慧":1902,"慨":1903,"慪":1904,"慫":1905,"慮":1906,"慰":1907,"慳":1908,"慵":1909,"慶":1910,"慷":1911,"慾":1912,"憂":1913,"憊":1914,"憋":1915,"憍":1916,"憎":1917,"憐":1918,"憑":1919,"憔":1920,"憚":1921,"憤":1922,"憧":1923,"憨":1924,"憩":1925,"憫":1926,"憬":1927,"憲":1928,"憶":1929,"憾":1930,"懂":1931,"懇":1932,"懈":1933,"應":1934,"懊":1935,"懋":1936,"懌":1937,"懟":1938,"懣":1939,"懦":1940,"懲":1941,"懶":1942,"懷":1943,"懸":1944,"懺":1945,"懼":1946,"懽":1947,"懾":1948,"懿":1949,"戀":1950,"戈":1951,"戊":1952,"戌":1953,"戍":1954,"戎":1955,"成":1956,"我":1957,"戒":1958,"戕":1959,"或":1960,"戚":1961,"戛":1962,"戟":1963,"戡":1964,"戩":1965,"截":1966,"戮":1967,"戰":1968,"戲":1969,"戳":1970,"戴":1971,"戶":1972,"戾":1973,"房":1974,"所":1975,"扁":1976,"扃":1977,"扇":1978,"扈":1979,"扉":1980,"手":1981,"才":1982,"扎":1983,"扒":1984,"打":1985,"扔":1986,"托":1987,"扛":1988,"扞":1989,"扣":1990,"扦":1991,"扭":1992,"扮":1993,"扯":1994,"扳":1995,"扶":1996,"批":1997,"扼":1998,"找":1999,"承":2000,"技":2001,"抄":2002,"抉":2003,"把":2004,"抑":2005,"抒":2006,"抓":2007,"投":2008,"抖":2009,"抗":2010,"折":2011,"抨":2012,"披":2013,"抬":2014,"抱":2015,"抵":2016,"抹":2017,"押":2018,"抽":2019,"拂":2020,"拆":2021,"拇":2022,"拈":2023,"拉":2024,"拋":2025,"拌":2026,"拍":2027,"拏":2028,"拐":2029,"拒":2030,"拓":2031,"拔":2032,"拖":2033,"拗":2034,"拘":2035,"拙":2036,"拚":2037,"招":2038,"拜":2039,"括":2040,"拭":2041,"拮":2042,"拯":2043,"拱":2044,"拳":2045,"拶":2046,"拷":2047,"拼":2048,"拾":2049,"拿":2050,"持":2051,"指":2052,"挈":2053,"按":2054,"挑":2055,"挖":2056,"挨":2057,"挪":2058,"挫":2059,"振":2060,"挹":2061,"挺":2062,"挽":2063,"挾":2064,"捂":2065,"捅":2066,"捆":2067,"捉":2068,"捍":2069,"捎":2070,"捏":2071,"捐":2072,"捒":2073,"捕":2074,"捧":2075,"捨":2076,"捩":2077,"据":2078,"捱":2079,"捲":2080,"捶":2081,"捷":2082,"捺":2083,"捻":2084,"掀":2085,"掃":2086,"掄":2087,"授":2088,"掉":2089,"掌":2090,"掏":2091,"掐":2092,"排":2093,"掖":2094,"掘":2095,"掙":2096,"掛":2097,"掠":2098,"採":2099,"探":2100,"掣":2101,"接":2102,"控":2103,"推":2104,"掩":2105,"措":2106,"掬":2107,"掰":2108,"揀":2109,"揄":2110,"揆":2111,"揉":2112,"描":2113,"提":2114,"插":2115,"揖":2116,"揚":2117,"換":2118,"握":2119,"揣":2120,"揩":2121,"揪":2122,"揭":2123,"揮":2124,"援":2125,"揵":2126,"揶":2127,"揹":2128,"搆":2129,"損":2130,"搏":2131,"搐":2132,"搓":2133,"搖":2134,"搗":2135,"搜":2136,"搞":2137,"搠":2138,"搡":2139,"搪":2140,"搫":2141,"搬":2142,"搭":2143,"搶":2144,"摎":2145,"摑":2146,"摒":2147,"摔":2148,"摘":2149,"摞":2150,"摧":2151,"摩":2152,"摭":2153,"摯":2154,"摳":2155,"摶":2156,"摸":2157,"摹":2158,"摺":2159,"摻":2160,"撃":2161,"撇":2162,"撈":2163,"撐":2164,"撒":2165,"撓":2166,"撕":2167,"撞":2168,"撣":2169,"撤":2170,"撥":2171,"撩":2172,"撫":2173,"撬":2174,"播":2175,"撮":2176,"撰":2177,"撲":2178,"撻":2179,"撼":2180,"撿":2181,"擀":2182,"擁":2183,"擂":2184,"擄":2185,"擅":2186,"擇":2187,"擊":2188,"擋":2189,"操":2190,"擎":2191,"擒":2192,"擔":2193,"擘":2194,"據":2195,"擠":2196,"擡":2197,"擢":2198,"擦":2199,"擧":2200,"擬":2201,"擯":2202,"擰":2203,"擱":2204,"擲":2205,"擴":2206,"擷":2207,"擺":2208,"擻":2209,"擼":2210,"擾":2211,"攀":2212,"攏":2213,"攔":2214,"攘":2215,"攙":2216,"攜":2217,"攝":2218,"攢":2219,"攣":2220,"攤":2221,"攪":2222,"攫":2223,"攬":2224,"支":2225,"攵":2226,"收":2227,"攸":2228,"改":2229,"攻":2230,"放":2231,"政":2232,"故":2233,"效":2234,"敉":2235,"敍":2236,"敎":2237,"敏":2238,"救":2239,"敕":2240,"敖":2241,"敗":2242,"敘":2243,"教":2244,"敝":2245,"敞":2246,"敢":2247,"散":2248,"敦":2249,"敬":2250,"敲":2251,"整":2252,"敵":2253,"敷":2254,"數":2255,"斂":2256,"斃":2257,"文":2258,"斌":2259,"斐":2260,"斑":2261,"斕":2262,"斗":2263,"料":2264,"斛":2265,"斜":2266,"斟":2267,"斡":2268,"斤":2269,"斥":2270,"斧":2271,"斫":2272,"斬":2273,"斮":2274,"斯":2275,"新":2276,"斷":2277,"方":2278,"於":2279,"施":2280,"旁":2281,"旂":2282,"旃":2283,"旅":2284,"旆":2285,"旋":2286,"旌":2287,"旎":2288,"族":2289,"旒":2290,"旖":2291,"旗":2292,"旛":2293,"既":2294,"日":2295,"旦":2296,"旨":2297,"早":2298,"旬":2299,"旭":2300,"旱":2301,"旵":2302,"旺":2303,"旻":2304,"旽":2305,"旿":2306,"昀":2307,"昂":2308,"昆":2309,"昇":2310,"昉":2311,"昊":2312,"昌":2313,"明":2314,"昏":2315,"昑":2316,"易":2317,"昔":2318,"昕":2319,"昚":2320,"昞":2321,"星":2322,"映":2323,"春":2324,"昧":2325,"昨":2326,"昭":2327,"是":2328,"昰":2329,"昱":2330,"昴":2331,"昵":2332,"昶":2333,"昺":2334,"晁":2335,"時":2336,"晃":2337,"晉":2338,"晏":2339,"晗":2340,"晚":2341,"晛":2342,"晝":2343,"晞":2344,"晟":2345,"晤":2346,"晦":2347,"晨":2348,"普":2349,"景":2350,"晰":2351,"晴":2352,"晶":2353,"晷":2354,"智":2355,"晾":2356,"暇":2357,"暈":2358,"暉":2359,"暊":2360,"暐":2361,"暑":2362,"暖":2363,"暗":2364,"暘":2365,"暝":2366,"暠":2367,"暢":2368,"暦":2369,"暨":2370,"暫":2371,"暮":2372,"暱":2373,"暴":2374,"暹":2375,"曄":2376,"曆":2377,"曇":2378,"曉":2379,"曌":2380,"曖":2381,"曙":2382,"曜":2383,"曝":2384,"曠":2385,"曦":2386,"曧":2387,"曨":2388,"曩":2389,"曬":2390,"曰":2391,"曲":2392,"曳":2393,"更":2394,"曶":2395,"曷":2396,"書":2397,"曹":2398,"曼":2399,"曾":2400,"替":2401,"最":2402,"會":2403,"月":2404,"有":2405,"朊":2406,"朋":2407,"服":2408,"朐":2409,"朔":2410,"朕":2411,"朗":2412,"望":2413,"朝":2414,"期":2415,"朦":2416,"朧":2417,"木":2418,"未":2419,"末":2420,"本":2421,"札":2422,"朮":2423,"朱":2424,"朴":2425,"朵":2426,"朽":2427,"杆":2428,"杉":2429,"李":2430,"杏":2431,"材":2432,"村":2433,"杓":2434,"杖":2435,"杙":2436,"杜":2437,"杞":2438,"束":2439,"杪":2440,"杭":2441,"杯":2442,"杰":2443,"東":2444,"杲":2445,"杳":2446,"杵":2447,"杷":2448,"杼":2449,"松":2450,"板":2451,"极":2452,"枇":2453,"枉":2454,"枋":2455,"枏":2456,"析":2457,"枕":2458,"林":2459,"枚":2460,"果":2461,"枝":2462,"枯":2463,"架":2464,"枷":2465,"枸":2466,"枹":2467,"柄":2468,"柏":2469,"某":2470,"柑":2471,"染":2472,"柔":2473,"柘":2474,"柚":2475,"柞":2476,"柢":2477,"柤":2478,"查":2479,"柩":2480,"柬":2481,"柯":2482,"柱":2483,"柳":2484,"柴":2485,"柵":2486,"柷":2487,"柺":2488,"柿":2489,"栃":2490,"栐":2491,"栓":2492,"栗":2493,"校":2494,"栩":2495,"株":2496,"栱":2497,"核":2498,"根":2499,"格":2500,"栽":2501,"桀":2502,"桁":2503,"桂":2504,"桃":2505,"桄":2506,"桅":2507,"框":2508,"案":2509,"桉":2510,"桌":2511,"桎":2512,"桐":2513,"桑":2514,"桓":2515,"桔":2516,"桕":2517,"桶":2518,"桿":2519,"梁":2520,"梅":2521,"梆":2522,"梏":2523,"梓":2524,"梗":2525,"條":2526,"梟":2527,"梢":2528,"梧":2529,"梨":2530,"梭":2531,"梯":2532,"械":2533,"梳":2534,"梵":2535,"棄":2536,"棉":2537,"棋":2538,"棍":2539,"棒":2540,"棕":2541,"棗":2542,"棘":2543,"棚":2544,"棟":2545,"棠":2546,"棣":2547,"棧":2548,"棫":2549,"森":2550,"棱":2551,"棲":2552,"棵":2553,"棹":2554,"棺":2555,"棻":2556,"椅":2557,"植":2558,"椎":2559,"椒":2560,"椰":2561,"椴":2562,"椿":2563,"楂":2564,"楊":2565,"楓":2566,"楔":2567,"楚":2568,"楝":2569,"楞":2570,"楠":2571,"楣":2572,"楨":2573,"楩":2574,"楫":2575,"業":2576,"楯":2577,"極":2578,"楷":2579,"楸":2580,"楹":2581,"楽":2582,"概":2583,"榆":2584,"榎":2585,"榑":2586,"榔":2587,"榕":2588,"榖":2589,"榛":2590,"榜":2591,"榦":2592,"榨":2593,"榭":2594,"榮":2595,"榴":2596,"榷":2597,"榻":2598,"槁":2599,"槃":2600,"構":2601,"槌":2602,"槍":2603,"槎":2604,"槐":2605,"槓":2606,"槔":2607,"様":2608,"槭":2609,"槲":2610,"槳":2611,"槽":2612,"槿":2613,"樁":2614,"樂":2615,"樉":2616,"樊":2617,"樑":2618,"樓":2619,"樔":2620,"樗":2621,"標":2622,"樞":2623,"樟":2624,"模":2625,"樣":2626,"樫":2627,"樵":2628,"樸":2629,"樹":2630,"樺":2631,"樽":2632,"樾":2633,"橄":2634,"橇":2635,"橈":2636,"橋":2637,"橘":2638,"橙":2639,"橚":2640,"橞":2641,"機":2642,"橡":2643,"橢":2644,"橫":2645,"橾":2646,"檀":2647,"檄":2648,"檎":2649,"檐":2650,"檔":2651,"檜":2652,"檢":2653,"檣":2654,"檬":2655,"檯":2656,"檳":2657,"檸":2658,"檻":2659,"櫃":2660,"櫓":2661,"櫚":2662,"櫛":2663,"櫟":2664,"櫥":2665,"櫪":2666,"櫫":2667,"櫱":2668,"櫺":2669,"櫻":2670,"欄":2671,"欅":2672,"權":2673,"欒":2674,"欖":2675,"欞":2676,"欠":2677,"次":2678,"欣":2679,"欲":2680,"欸":2681,"欹":2682,"欺":2683,"欽":2684,"款":2685,"歆":2686,"歇":2687,"歉":2688,"歌":2689,"歎":2690,"歐":2691,"歙":2692,"歟":2693,"歡":2694,"止":2695,"正":2696,"此":2697,"步":2698,"武":2699,"歧":2700,"歪":2701,"歲":2702,"歳":2703,"歷":2704,"歸":2705,"歹":2706,"死":2707,"歿":2708,"殂":2709,"殃":2710,"殄":2711,"殆":2712,"殉":2713,"殊":2714,"殍":2715,"殖":2716,"殘":2717,"殞":2718,"殤":2719,"殫":2720,"殭":2721,"殯":2722,"殲":2723,"段":2724,"殷":2725,"殺":2726,"殼":2727,"殿":2728,"毀":2729,"毅":2730,"毆":2731,"毋":2732,"毌":2733,"母":2734,"毎":2735,"每":2736,"毒":2737,"毓":2738,"比":2739,"毖":2740,"毗":2741,"毘":2742,"毛":2743,"毫":2744,"毬":2745,"毯":2746,"毽":2747,"氂":2748,"氆":2749,"氈":2750,"氌":2751,"氏":2752,"氐":2753,"民":2754,"氓":2755,"气":2756,"氕":2757,"氖":2758,"気":2759,"氘":2760,"氚":2761,"氛":2762,"氟":2763,"氡":2764,"氣":2765,"氤":2766,"氦":2767,"氧":2768,"氨":2769,"氫":2770,"氬":2771,"氮":2772,"氯":2773,"氰":2774,"氳":2775,"水":2776,"氵":2777,"氷":2778,"永":2779,"氹":2780,"氾":2781,"氿":2782,"汀":2783,"汁":2784,"求":2785,"汆":2786,"汊":2787,"汏":2788,"汐":2789,"汕":2790,"汗":2791,"汙":2792,"汛":2793,"汜":2794,"汝":2795,"汞":2796,"江":2797,"池":2798,"污":2799,"汨":2800,"汩":2801,"汪":2802,"汭":2803,"汰":2804,"汲":2805,"汴":2806,"汶":2807,"決":2808,"汽":2809,"汾":2810,"沁":2811,"沂":2812,"沃":2813,"沄":2814,"沅":2815,"沆":2816,"沈":2817,"沉":2818,"沌":2819,"沏":2820,"沐":2821,"沒":2822,"沓":2823,"沔":2824,"沖":2825,"沘":2826,"沙":2827,"沚":2828,"沛":2829,"沞":2830,"沫":2831,"沭":2832,"沮":2833,"沱":2834,"河":2835,"沸":2836,"油":2837,"治":2838,"沼":2839,"沽":2840,"沾":2841,"沿":2842,"況":2843,"泄":2844,"泉":2845,"泊":2846,"泌":2847,"泐":2848,"泓":2849,"法":2850,"泖":2851,"泗":2852,"泚":2853,"泛":2854,"泠":2855,"泡":2856,"波":2857,"泣":2858,"泥":2859,"注":2860,"泮":2861,"泯":2862,"泰":2863,"泳":2864,"泵":2865,"洄":2866,"洋":2867,"洎":2868,"洑":2869,"洗":2870,"洙":2871,"洛":2872,"洞":2873,"津":2874,"洧":2875,"洩":2876,"洪":2877,"洮":2878,"洱":2879,"洲":2880,"洵":2881,"洶":2882,"洸":2883,"洹":2884,"洺":2885,"活":2886,"洼":2887,"洽":2888,"派":2889,"流":2890,"浄":2891,"浙":2892,"浚":2893,"浜":2894,"浣":2895,"浦":2896,"浩":2897,"浪":2898,"浬":2899,"浮":2900,"浯":2901,"浰":2902,"浴":2903,"海":2904,"浸":2905,"浹":2906,"涂":2907,"涅":2908,"涇":2909,"消":2910,"涉":2911,"涌":2912,"涓":2913,"涕":2914,"涪":2915,"涮":2916,"涯":2917,"液":2918,"涵":2919,"涸":2920,"涼":2921,"涿":2922,"淀":2923,"淄":2924,"淅":2925,"淆":2926,"淇":2927,"淋":2928,"淌":2929,"淎":2930,"淏":2931,"淑":2932,"淒":2933,"淖":2934,"淘":2935,"淚":2936,"淝":2937,"淞":2938,"淡":2939,"淤":2940,"淦":2941,"淨":2942,"淩":2943,"淪":2944,"淫":2945,"淬":2946,"淮":2947,"深":2948,"淳":2949,"淵":2950,"淶":2951,"混":2952,"淹":2953,"淺":2954,"添":2955,"淼":2956,"清":2957,"済":2958,"渙":2959,"渚":2960,"減":2961,"渝":2962,"渟":2963,"渠":2964,"渡":2965,"渣":2966,"渤":2967,"渥":2968,"渦":2969,"測":2970,"渭":2971,"港":2972,"渲":2973,"渴":2974,"游":2975,"渺":2976,"渾":2977,"湃":2978,"湄":2979,"湉":2980,"湊":2981,"湍":2982,"湎":2983,"湖":2984,"湘":2985,"湛":2986,"湜":2987,"湟":2988,"湧":2989,"湮":2990,"湯":2991,"湳":2992,"溉":2993,"源":2994,"準":2995,"溘":2996,"溜":2997,"溝":2998,"溟":2999,"溢":3000,"溥":3001,"溧":3002,"溪":3003,"溫":3004,"溯":3005,"溰":3006,"溴":3007,"溶":3008,"溺":3009,"溼":3010,"滁":3011,"滂":3012,"滃":3013,"滄":3014,"滅":3015,"滆":3016,"滇":3017,"滉":3018,"滋":3019,"滌":3020,"滎":3021,"滏":3022,"滑":3023,"滓":3024,"滔":3025,"滕":3026,"滘":3027,"滙":3028,"滥":3029,"滬":3030,"滯":3031,"滲":3032,"滴":3033,"滷":3034,"滸":3035,"滹":3036,"滾":3037,"滿":3038,"漁":3039,"漂":3040,"漆":3041,"漏":3042,"演":3043,"漕":3044,"漠":3045,"漢":3046,"漣":3047,"漩":3048,"漪":3049,"漫":3050,"漬":3051,"漯":3052,"漱":3053,"漲":3054,"漳":3055,"漸":3056,"漾":3057,"漿":3058,"潁":3059,"潑":3060,"潔":3061,"潘":3062,"潙":3063,"潛":3064,"潞":3065,"潟":3066,"潢":3067,"潤":3068,"潦":3069,"潭":3070,"潮":3071,"潯":3072,"潰":3073,"潲":3074,"潸":3075,"潺":3076,"潼":3077,"澀":3078,"澂":3079,"澄":3080,"澆":3081,"澇":3082,"澈":3083,"澉":3084,"澍":3085,"澎":3086,"澐":3087,"澗":3088,"澠":3089,"澡":3090,"澤":3091,"澥":3092,"澧":3093,"澮":3094,"澱":3095,"澳":3096,"澶":3097,"澹":3098,"激":3099,"濁":3100,"濂":3101,"濃":3102,"濉":3103,"濊":3104,"濔":3105,"濕":3106,"濘":3107,"濛":3108,"濞":3109,"濟":3110,"濠":3111,"濡":3112,"濤":3113,"濫":3114,"濬":3115,"濮":3116,"濰":3117,"濱":3118,"濺":3119,"濼":3120,"濾":3121,"瀅":3122,"瀆":3123,"瀉":3124,"瀋":3125,"瀍":3126,"瀏":3127,"瀑":3128,"瀕":3129,"瀘":3130,"瀚":3131,"瀛":3132,"瀝":3133,"瀟":3134,"瀦":3135,"瀧":3136,"瀨":3137,"瀰":3138,"瀲":3139,"瀾":3140,"灃":3141,"灌":3142,"灑":3143,"灕":3144,"灘":3145,"灝":3146,"灞":3147,"灣":3148,"灤":3149,"灩":3150,"火":3151,"灰":3152,"灶":3153,"灸":3154,"灼":3155,"災":3156,"炅":3157,"炆":3158,"炊":3159,"炎":3160,"炒":3161,"炔":3162,"炕":3163,"炙":3164,"炟":3165,"炫":3166,"炬":3167,"炭":3168,"炮":3169,"炯":3170,"炳":3171,"炸":3172,"為":3173,"烇":3174,"烈":3175,"烊":3176,"烏":3177,"烘":3178,"烙":3179,"烝":3180,"烤":3181,"烯":3182,"烴":3183,"烷":3184,"烹":3185,"烺":3186,"烽":3187,"焉":3188,"焊":3189,"焓":3190,"焙":3191,"焚":3192,"焜":3193,"焝":3194,"無":3195,"焦":3196,"焰":3197,"焱":3198,"然":3199,"煆":3200,"煉":3201,"煌":3202,"煎":3203,"煑":3204,"煒":3205,"煙":3206,"煜":3207,"煞":3208,"煤":3209,"煥":3210,"煦":3211,"照":3212,"煨":3213,"煩":3214,"煬":3215,"煮":3216,"煽":3217,"熄":3218,"熅":3219,"熊":3220,"熏":3221,"熒":3222,"熔":3223,"熘":3224,"熙":3225,"熞":3226,"熟":3227,"熥":3228,"熨":3229,"熬":3230,"熱":3231,"熵":3232,"熹":3233,"熾":3234,"燁":3235,"燃":3236,"燈":3237,"燉":3238,"燊":3239,"燎":3240,"燏":3241,"燒":3242,"燕":3243,"燙":3244,"燜":3245,"營":3246,"燥":3247,"燦":3248,"燧":3249,"燬":3250,"燭":3251,"燮":3252,"燴":3253,"燹":3254,"燻":3255,"燼":3256,"燾":3257,"燿":3258,"爆":3259,"爌":3260,"爍":3261,"爐":3262,"爛":3263,"爨":3264,"爪":3265,"爬":3266,"爭":3267,"爰":3268,"爲":3269,"爵":3270,"父":3271,"爸":3272,"爹":3273,"爺":3274,"爻":3275,"爽":3276,"爾":3277,"牀":3278,"牆":3279,"片":3280,"版":3281,"牌":3282,"牒":3283,"牘":3284,"牙":3285,"牛":3286,"牟":3287,"牠":3288,"牡":3289,"牢":3290,"牧":3291,"物":3292,"牯":3293,"牲":3294,"牴":3295,"特":3296,"牽":3297,"犀":3298,"犁":3299,"犄":3300,"犍":3301,"犒":3302,"犛":3303,"犢":3304,"犧":3305,"犬":3306,"犯":3307,"犰":3308,"狀":3309,"狁":3310,"狂":3311,"狃":3312,"狄":3313,"狍":3314,"狎":3315,"狐":3316,"狒":3317,"狗":3318,"狙":3319,"狛":3320,"狠":3321,"狡":3322,"狩":3323,"狳":3324,"狸":3325,"狹":3326,"狺":3327,"狼":3328,"狽":3329,"猁":3330,"猇":3331,"猖":3332,"猛":3333,"猜":3334,"猝":3335,"猞":3336,"猥":3337,"猩":3338,"猴":3339,"猶":3340,"猷":3341,"猾":3342,"猿":3343,"獁":3344,"獄":3345,"獅":3346,"獎":3347,"獐":3348,"獗":3349,"獨":3350,"獪":3351,"獫":3352,"獬":3353,"獮":3354,"獲":3355,"獵":3356,"獷":3357,"獸":3358,"獺":3359,"獻":3360,"獼":3361,"獾":3362,"玀":3363,"玄":3364,"玆":3365,"率":3366,"玉":3367,"王":3368,"玕":3369,"玟":3370,"玠":3371,"玥":3372,"玦":3373,"玨":3374,"玩":3375,"玫":3376,"玲":3377,"玳":3378,"玷":3379,"玻":3380,"珀":3381,"珂":3382,"珅":3383,"珈":3384,"珊":3385,"珍":3386,"珏":3387,"珙":3388,"珞":3389,"珠":3390,"珥":3391,"珩":3392,"珪":3393,"班":3394,"珺":3395,"現":3396,"球":3397,"琅":3398,"理":3399,"琇":3400,"琉":3401,"琊":3402,"琛":3403,"琢":3404,"琥":3405,"琦":3406,"琨":3407,"琪":3408,"琬":3409,"琮":3410,"琯":3411,"琰":3412,"琳":3413,"琴":3414,"琵":3415,"琶":3416,"琺":3417,"琿":3418,"瑀":3419,"瑁":3420,"瑄":3421,"瑈":3422,"瑊":3423,"瑋":3424,"瑕":3425,"瑗":3426,"瑙":3427,"瑚":3428,"瑛":3429,"瑜":3430,"瑞":3431,"瑟":3432,"瑢":3433,"瑣":3434,"瑤":3435,"瑩":3436,"瑪":3437,"瑭":3438,"瑯":3439,"瑰":3440,"瑱":3441,"瑾":3442,"璀":3443,"璃":3444,"璇":3445,"璈":3446,"璉":3447,"璋":3448,"璐":3449,"璘":3450,"璜":3451,"璞":3452,"璟":3453,"璠":3454,"璡":3455,"璣":3456,"璥":3457,"璦":3458,"璧":3459,"璨":3460,"璩":3461,"璫":3462,"環":3463,"璽":3464,"璿":3465,"瓊":3466,"瓌":3467,"瓏":3468,"瓐":3469,"瓖":3470,"瓘":3471,"瓚":3472,"瓛":3473,"瓜":3474,"瓠":3475,"瓣":3476,"瓦":3477,"瓩":3478,"瓮":3479,"瓶":3480,"瓷":3481,"甄":3482,"甌":3483,"甑":3484,"甘":3485,"甚":3486,"甛":3487,"甜":3488,"生":3489,"產":3490,"産":3491,"甥":3492,"甦":3493,"用":3494,"甩":3495,"甫":3496,"甬":3497,"甯":3498,"田":3499,"由":3500,"甲":3501,"申":3502,"男":3503,"甸":3504,"町":3505,"甾":3506,"畋":3507,"界":3508,"畏":3509,"畑":3510,"畔":3511,"留":3512,"畛":3513,"畜":3514,"畝":3515,"畠":3516,"畢":3517,"略":3518,"畦":3519,"番":3520,"畫":3521,"畬":3522,"畯":3523,"異":3524,"畲":3525,"畵":3526,"當":3527,"畸":3528,"畹":3529,"畿":3530,"疆":3531,"疇":3532,"疊":3533,"疏":3534,"疑":3535,"疙":3536,"疚":3537,"疣":3538,"疤":3539,"疫":3540,"疲":3541,"疳":3542,"疵":3543,"疸":3544,"疹":3545,"疼":3546,"疽":3547,"疾":3548,"病":3549,"症":3550,"痊":3551,"痍":3552,"痔":3553,"痕":3554,"痘":3555,"痙":3556,"痛":3557,"痞":3558,"痢":3559,"痧":3560,"痰":3561,"痲":3562,"痴":3563,"痹":3564,"痺":3565,"瘀":3566,"瘁":3567,"瘋":3568,"瘍":3569,"瘓":3570,"瘞":3571,"瘟":3572,"瘠":3573,"瘡":3574,"瘤":3575,"瘦":3576,"瘧":3577,"瘩":3578,"瘴":3579,"瘻":3580,"瘼":3581,"療":3582,"癆":3583,"癇":3584,"癌":3585,"癒":3586,"癖":3587,"癜":3588,"癟":3589,"癡":3590,"癢":3591,"癥":3592,"癩":3593,"癬":3594,"癮":3595,"癱":3596,"癲":3597,"癸":3598,"登":3599,"發":3600,"白":3601,"百":3602,"皂":3603,"的":3604,"皆":3605,"皇":3606,"皈":3607,"皋":3608,"皓":3609,"皖":3610,"皚":3611,"皝":3612,"皮":3613,"皴":3614,"皺":3615,"皿":3616,"盂":3617,"盃":3618,"盅":3619,"盆":3620,"盈":3621,"益":3622,"盍":3623,"盎":3624,"盒":3625,"盔":3626,"盛":3627,"盜":3628,"盞":3629,"盟":3630,"盡":3631,"監":3632,"盤":3633,"盥":3634,"盧":3635,"盪":3636,"目":3637,"盯":3638,"盱":3639,"盲":3640,"直":3641,"相":3642,"盹":3643,"盼":3644,"盾":3645,"省":3646,"眈":3647,"眉":3648,"看":3649,"県":3650,"眙":3651,"真":3652,"眠":3653,"眨":3654,"眩":3655,"眷":3656,"眸":3657,"眺":3658,"眼":3659,"眾":3660,"着":3661,"睍":3662,"睛":3663,"睜":3664,"睞":3665,"睡":3666,"睢":3667,"督":3668,"睦":3669,"睪":3670,"睫":3671,"睬":3672,"睹":3673,"睽":3674,"睾":3675,"睿":3676,"瞄":3677,"瞅":3678,"瞌":3679,"瞎":3680,"瞞":3681,"瞠":3682,"瞧":3683,"瞪":3684,"瞬":3685,"瞭":3686,"瞰":3687,"瞳":3688,"瞻":3689,"瞽":3690,"瞾":3691,"瞿":3692,"矇":3693,"矓":3694,"矗":3695,"矚":3696,"矛":3697,"矜":3698,"矢":3699,"矣":3700,"知":3701,"矩":3702,"矬":3703,"短":3704,"矮":3705,"矯":3706,"石":3707,"矸":3708,"矽":3709,"砂":3710,"砈":3711,"砌":3712,"砍":3713,"砒":3714,"研":3715,"砥":3716,"砧":3717,"砭":3718,"砮":3719,"砰":3720,"砲":3721,"破":3722,"砵":3723,"砷":3724,"砸":3725,"硃":3726,"硅":3727,"硒":3728,"硝":3729,"硤":3730,"硫":3731,"硬":3732,"硯":3733,"硼":3734,"碁":3735,"碇":3736,"碉":3737,"碌":3738,"碎":3739,"碑":3740,"碓":3741,"碗":3742,"碘":3743,"碚":3744,"碟":3745,"碣":3746,"碧":3747,"碩":3748,"碭":3749,"碰":3750,"碲":3751,"碳":3752,"確":3753,"碼":3754,"碾":3755,"磁":3756,"磅":3757,"磊":3758,"磋":3759,"磐":3760,"磔":3761,"磕":3762,"磚":3763,"磡":3764,"磧":3765,"磨":3766,"磬":3767,"磯":3768,"磴":3769,"磷":3770,"磺":3771,"磽":3772,"磾":3773,"礁":3774,"礌":3775,"礎":3776,"礙":3777,"礡":3778,"礦":3779,"礪":3780,"礫":3781,"礬":3782,"礱":3783,"礴":3784,"示":3785,"礽":3786,"社":3787,"祀":3788,"祁":3789,"祂":3790,"祅":3791,"祆":3792,"祇":3793,"祈":3794,"祉":3795,"祏":3796,"祐":3797,"祕":3798,"祖":3799,"祗":3800,"祚":3801,"祛":3802,"祜":3803,"祝":3804,"神":3805,"祟":3806,"祠":3807,"祥":3808,"票":3809,"祩":3810,"祭":3811,"祺":3812,"祿":3813,"禁":3814,"禋":3815,"禍":3816,"禎":3817,"福":3818,"禕":3819,"禖":3820,"禛":3821,"禥":3822,"禦":3823,"禧":3824,"禪":3825,"禮":3826,"禱":3827,"禹":3828,"禺":3829,"禽":3830,"禾":3831,"禿":3832,"秀":3833,"私":3834,"秈":3835,"秉":3836,"秋":3837,"秌":3838,"种":3839,"科":3840,"秒":3841,"秘":3842,"租":3843,"秣":3844,"秤":3845,"秥":3846,"秦":3847,"秧":3848,"秩":3849,"秸":3850,"移":3851,"稀":3852,"稃":3853,"稅":3854,"稈":3855,"稉":3856,"程":3857,"稍":3858,"稔":3859,"稗":3860,"稚":3861,"稜":3862,"稞":3863,"稟":3864,"稠":3865,"種":3866,"稱":3867,"稲":3868,"稷":3869,"稹":3870,"稻":3871,"稼":3872,"稽":3873,"稿":3874,"穀":3875,"穆":3876,"穌":3877,"積":3878,"穎":3879,"穗":3880,"穢":3881,"穩":3882,"穫":3883,"穬":3884,"穰":3885,"穴":3886,"究":3887,"穹":3888,"空":3889,"穿":3890,"突":3891,"窄":3892,"窒":3893,"窖":3894,"窗":3895,"窘":3896,"窟":3897,"窠":3898,"窣":3899,"窩":3900,"窪":3901,"窮":3902,"窯":3903,"窶":3904,"窺":3905,"竄":3906,"竇":3907,"竈":3908,"竊":3909,"立":3910,"竑":3911,"站":3912,"竟":3913,"章":3914,"竣":3915,"童":3916,"竭":3917,"端":3918,"競":3919,"竹":3920,"竺":3921,"竿":3922,"笆":3923,"笈":3924,"笏":3925,"笑":3926,"笙":3927,"笛":3928,"笠":3929,"符":3930,"笨":3931,"第":3932,"笮":3933,"笳":3934,"筆":3935,"等":3936,"筊":3937,"筋":3938,"筌":3939,"筍":3940,"筏":3941,"筐":3942,"筑":3943,"筒":3944,"答":3945,"策":3946,"筠":3947,"筥":3948,"筧":3949,"筮":3950,"筲":3951,"筴":3952,"筵":3953,"筷":3954,"箇":3955,"箋":3956,"箏":3957,"箔":3958,"箕":3959,"算":3960,"箜":3961,"箝":3962,"管":3963,"箬":3964,"箭":3965,"箱":3966,"箴":3967,"節":3968,"範":3969,"篆":3970,"篇":3971,"築":3972,"篋":3973,"篌":3974,"篡":3975,"篤":3976,"篩":3977,"篪":3978,"篷":3979,"篾":3980,"簀":3981,"簇":3982,"簋":3983,"簌":3984,"簒":3985,"簡":3986,"簣":3987,"簧":3988,"簪":3989,"簫":3990,"簷":3991,"簸":3992,"簽":3993,"簾":3994,"簿":3995,"籀":3996,"籃":3997,"籌":3998,"籍":3999,"籐":4000,"籙":4001,"籠":4002,"籤":4003,"籬":4004,"籮":4005,"籲":4006,"米":4007,"籽":4008,"粄":4009,"粉":4010,"粑":4011,"粒":4012,"粕":4013,"粗":4014,"粘":4015,"粟":4016,"粥":4017,"粧":4018,"粱":4019,"粲":4020,"粳":4021,"粵":4022,"粹":4023,"粽":4024,"精":4025,"粿":4026,"糅":4027,"糉":4028,"糊":4029,"糌":4030,"糍":4031,"糕":4032,"糖":4033,"糙":4034,"糜":4035,"糞":4036,"糟":4037,"糠":4038,"糧":4039,"糭":4040,"糯":4041,"糰":4042,"糲":4043,"糶":4044,"糸":4045,"系":4046,"糾":4047,"紀":4048,"紂":4049,"約":4050,"紅":4051,"紇":4052,"紈":4053,"紉":4054,"紊":4055,"紋":4056,"納":4057,"紐":4058,"紓":4059,"純":4060,"紗":4061,"紘":4062,"紙":4063,"級":4064,"紛":4065,"紜":4066,"素":4067,"紡":4068,"索":4069,"紥":4070,"紫":4071,"紬":4072,"紮":4073,"累":4074,"細":4075,"紱":4076,"紳":4077,"紵":4078,"紹":4079,"絀":4080,"絁":4081,"終":4082,"絃":4083,"組":4084,"絆":4085,"経":4086,"結":4087,"絕":4088,"絜":4089,"絝":4090,"絞":4091,"絡":4092,"絢":4093,"給":4094,"絨":4095,"絪":4096,"絫":4097,"絮":4098,"統":4099,"絲":4100,"絳":4101,"絶":4102,"絹":4103,"綁":4104,"綎":4105,"綏":4106,"綑":4107,"經":4108,"綜":4109,"綝":4110,"綠":4111,"綢":4112,"綣":4113,"綦":4114,"綫":4115,"綬":4116,"維":4117,"綰":4118,"綱":4119,"網":4120,"綴":4121,"綵":4122,"綷":4123,"綸":4124,"綹":4125,"綺":4126,"綻":4127,"綽":4128,"綾":4129,"綿":4130,"緈":4131,"緊":4132,"緋":4133,"緍":4134,"緒":4135,"緘":4136,"線":4137,"緝":4138,"緞":4139,"締":4140,"緣":4141,"編":4142,"緩":4143,"緬":4144,"緯":4145,"緱":4146,"緲":4147,"練":4148,"緹":4149,"緻":4150,"縈":4151,"縉":4152,"縊":4153,"縋":4154,"縑":4155,"縛":4156,"縝":4157,"縟":4158,"縠":4159,"縢":4160,"縣":4161,"縫":4162,"縮":4163,"縱":4164,"縲":4165,"縷":4166,"縹":4167,"縻":4168,"總":4169,"績":4170,"繁":4171,"繃":4172,"繅":4173,"繆":4174,"繇":4175,"繋":4176,"繒":4177,"織":4178,"繕":4179,"繞":4180,"繡":4181,"繩":4182,"繪":4183,"繫":4184,"繭":4185,"繮":4186,"繳":4187,"繹":4188,"繼":4189,"繽":4190,"繾":4191,"纂":4192,"纇":4193,"纈":4194,"續":4195,"纍":4196,"纏":4197,"纓":4198,"纔":4199,"纖":4200,"纘":4201,"纛":4202,"纜":4203,"约":4204,"缶":4205,"缸":4206,"缺":4207,"缽":4208,"罄":4209,"罈":4210,"罌":4211,"罐":4212,"罔":4213,"罕":4214,"罟":4215,"罡":4216,"罩":4217,"罪":4218,"置":4219,"罰":4220,"署":4221,"罵":4222,"罷":4223,"罹":4224,"罽":4225,"罾":4226,"羅":4227,"羆":4228,"羈":4229,"羊":4230,"羌":4231,"美":4232,"羑":4233,"羔":4234,"羖":4235,"羚":4236,"羞":4237,"羣":4238,"群":4239,"羥":4240,"羧":4241,"羨":4242,"義":4243,"羯":4244,"羰":4245,"羲":4246,"羸":4247,"羹":4248,"羽":4249,"羾":4250,"羿":4251,"翁":4252,"翅":4253,"翊":4254,"翌":4255,"翎":4256,"習":4257,"翔":4258,"翟":4259,"翠":4260,"翡":4261,"翦":4262,"翩":4263,"翬":4264,"翮":4265,"翰":4266,"翱":4267,"翹":4268,"翻":4269,"翼":4270,"翽":4271,"耀":4272,"老":4273,"考":4274,"耄":4275,"者":4276,"耆":4277,"耇":4278,"耋":4279,"而":4280,"耍":4281,"耐":4282,"耒":4283,"耕":4284,"耗":4285,"耘":4286,"耙":4287,"耜":4288,"耦":4289,"耨":4290,"耳":4291,"耶":4292,"耷":4293,"耽":4294,"耿":4295,"聆":4296,"聊":4297,"聖":4298,"聘":4299,"聚":4300,"聞":4301,"聯":4302,"聰":4303,"聲":4304,"聳":4305,"聶":4306,"職":4307,"聽":4308,"聾":4309,"聿":4310,"肄":4311,"肅":4312,"肆":4313,"肇":4314,"肉":4315,"肋":4316,"肌":4317,"肓":4318,"肖":4319,"肘":4320,"肚":4321,"肛":4322,"肝":4323,"肟":4324,"股":4325,"肢":4326,"肥":4327,"肩":4328,"肪":4329,"肯":4330,"育":4331,"肴":4332,"肺":4333,"肽":4334,"胂":4335,"胃":4336,"胄":4337,"背":4338,"胎":4339,"胖":4340,"胚":4341,"胛":4342,"胞":4343,"胡":4344,"胤":4345,"胥":4346,"胭":4347,"胯":4348,"胰":4349,"胱":4350,"胳":4351,"胸":4352,"胺":4353,"能":4354,"脂":4355,"脅":4356,"脆":4357,"脇":4358,"脈":4359,"脊":4360,"脖":4361,"脛":4362,"脟":4363,"脣":4364,"脤":4365,"脩":4366,"脫":4367,"脯":4368,"脷":4369,"脹":4370,"脾":4371,"腆":4372,"腈":4373,"腋":4374,"腎":4375,"腐":4376,"腑":4377,"腓":4378,"腔":4379,"腕":4380,"腚":4381,"腥":4382,"腦":4383,"腫":4384,"腮":4385,"腰":4386,"腱":4387,"腳":4388,"腸":4389,"腹":4390,"腺":4391,"腿":4392,"膀":4393,"膈":4394,"膊":4395,"膏":4396,"膚":4397,"膛":4398,"膜":4399,"膝":4400,"膠":4401,"膦":4402,"膨":4403,"膩":4404,"膰":4405,"膳":4406,"膺":4407,"膻":4408,"膽":4409,"膾":4410,"膿":4411,"臀":4412,"臂":4413,"臆":4414,"臉":4415,"臍":4416,"臏":4417,"臘":4418,"臚":4419,"臟":4420,"臣":4421,"臥":4422,"臧":4423,"臨":4424,"自":4425,"臬":4426,"臭":4427,"至":4428,"致":4429,"臺":4430,"臻":4431,"臼":4432,"臾":4433,"舂":4434,"舅":4435,"與":4436,"興":4437,"舉":4438,"舊":4439,"舌":4440,"舍":4441,"舒":4442,"舔":4443,"舖":4444,"舜":4445,"舞":4446,"舟":4447,"舢":4448,"舨":4449,"航":4450,"舫":4451,"般":4452,"舳":4453,"舵":4454,"舶":4455,"舷":4456,"船":4457,"舺":4458,"艇":4459,"艉":4460,"艋":4461,"艏":4462,"艘":4463,"艙":4464,"艚":4465,"艦":4466,"艫":4467,"艮":4468,"良":4469,"艱":4470,"色":4471,"艷":4472,"艹":4473,"艽":4474,"艾":4475,"芊":4476,"芋":4477,"芍":4478,"芎":4479,"芑":4480,"芒":4481,"芙":4482,"芝":4483,"芟":4484,"芥":4485,"芨":4486,"芩":4487,"芪":4488,"芫":4489,"芬":4490,"芭":4491,"芮":4492,"芯":4493,"芰":4494,"花":4495,"芳":4496,"芷":4497,"芸":4498,"芹":4499,"芻":4500,"芽":4501,"芾":4502,"苑":4503,"苓":4504,"苔":4505,"苕":4506,"苗":4507,"苛":4508,"苞":4509,"苟":4510,"苣":4511,"若":4512,"苦":4513,"苧":4514,"苫":4515,"苯":4516,"英":4517,"苴":4518,"苷":4519,"苻":4520,"苾":4521,"茁":4522,"茂":4523,"范":4524,"茄":4525,"茅":4526,"茉":4527,"茌":4528,"茗":4529,"茛":4530,"茜":4531,"茨":4532,"茫":4533,"茬":4534,"茭":4535,"茯":4536,"茱":4537,"茲":4538,"茵":4539,"茶":4540,"茸":4541,"茹":4542,"荀":4543,"荃":4544,"荇":4545,"草":4546,"荊":4547,"荐":4548,"荑":4549,"荒":4550,"荔":4551,"荖":4552,"荳":4553,"荷":4554,"荸":4555,"荻":4556,"荼":4557,"莆":4558,"莉":4559,"莊":4560,"莎":4561,"莒":4562,"莓":4563,"莖":4564,"莘":4565,"莜":4566,"莞":4567,"莢":4568,"莩":4569,"莪":4570,"莫":4571,"莱":4572,"莽":4573,"莿":4574,"菁":4575,"菅":4576,"菇":4577,"菊":4578,"菌":4579,"菏":4580,"菓":4581,"菘":4582,"菜":4583,"菟":4584,"菠":4585,"菡":4586,"菩":4587,"華":4588,"菱":4589,"菲":4590,"菴":4591,"菸":4592,"菼":4593,"菽":4594,"萁":4595,"萃":4596,"萄":4597,"萇":4598,"萊":4599,"萌":4600,"萍":4601,"萎":4602,"萘":4603,"萜":4604,"萩":4605,"萬":4606,"萱":4607,"萵":4608,"萸":4609,"萼":4610,"落":4611,"葆":4612,"葉":4613,"葑":4614,"著":4615,"葛":4616,"葡":4617,"董":4618,"葦":4619,"葩":4620,"葫":4621,"葬":4622,"葭":4623,"葯":4624,"葳":4625,"葵":4626,"葷":4627,"葺":4628,"蒂":4629,"蒐":4630,"蒔":4631,"蒗":4632,"蒙":4633,"蒜":4634,"蒞":4635,"蒡":4636,"蒨":4637,"蒯":4638,"蒲":4639,"蒴":4640,"蒸":4641,"蒼":4642,"蒿":4643,"蓀":4644,"蓁":4645,"蓄":4646,"蓆":4647,"蓉":4648,"蓋":4649,"蓍":4650,"蓑":4651,"蓓":4652,"蓬":4653,"蓮":4654,"蓼":4655,"蔑":4656,"蔓":4657,"蔔":4658,"蔗":4659,"蔘":4660,"蔚":4661,"蔡":4662,"蔣":4663,"蔥":4664,"蔦":4665,"蔬":4666,"蔭":4667,"蔻":4668,"蔽":4669,"蕃":4670,"蕈":4671,"蕉":4672,"蕊":4673,"蕎":4674,"蕙":4675,"蕤":4676,"蕨":4677,"蕩":4678,"蕪":4679,"蕭":4680,"蕷":4681,"蕾":4682,"薄":4683,"薇":4684,"薈":4685,"薊":4686,"薌":4687,"薑":4688,"薔":4689,"薙":4690,"薛":4691,"薤":4692,"薦":4693,"薨":4694,"薩":4695,"薪":4696,"薯":4697,"薰":4698,"薺":4699,"藉":4700,"藍":4701,"藎":4702,"藏":4703,"藐":4704,"藕":4705,"藝":4706,"藤":4707,"藥":4708,"藩":4709,"藪":4710,"藷":4711,"藹":4712,"藺":4713,"藻":4714,"藿":4715,"蘄":4716,"蘅":4717,"蘆":4718,"蘇":4719,"蘊":4720,"蘋":4721,"蘑":4722,"蘚":4723,"蘢":4724,"蘩":4725,"蘭":4726,"蘸":4727,"蘼":4728,"蘿":4729,"虎":4730,"虐":4731,"虔":4732,"處":4733,"虛":4734,"虜":4735,"虞":4736,"號":4737,"虢":4738,"虧":4739,"虱":4740,"虹":4741,"虺":4742,"虻":4743,"蚊":4744,"蚌":4745,"蚓":4746,"蚣":4747,"蚤":4748,"蚩":4749,"蚪":4750,"蚯":4751,"蚴":4752,"蚵":4753,"蛀":4754,"蛆":4755,"蛇":4756,"蛋":4757,"蛔":4758,"蛙":4759,"蛛":4760,"蛞":4761,"蛟":4762,"蛤":4763,"蛭":4764,"蛹":4765,"蛻":4766,"蛾":4767,"蜀":4768,"蜂":4769,"蜃":4770,"蜇":4771,"蜈":4772,"蜊":4773,"蜍":4774,"蜑":4775,"蜒":4776,"蜓":4777,"蜘":4778,"蜚":4779,"蜜":4780,"蜢":4781,"蜥":4782,"蜴":4783,"蜻":4784,"蜿":4785,"蝌":4786,"蝓":4787,"蝕":4788,"蝗":4789,"蝙":4790,"蝟":4791,"蝠":4792,"蝤":4793,"蝦":4794,"蝰":4795,"蝴":4796,"蝶":4797,"蝸":4798,"螂":4799,"螃":4800,"螄":4801,"螈":4802,"融":4803,"螞":4804,"螢":4805,"螯":4806,"螳":4807,"螺":4808,"螻":4809,"螽":4810,"螾":4811,"蟀":4812,"蟄":4813,"蟆":4814,"蟋":4815,"蟎":4816,"蟑":4817,"蟒":4818,"蟠":4819,"蟥":4820,"蟬":4821,"蟲":4822,"蟹":4823,"蟻":4824,"蟾":4825,"蠅":4826,"蠍":4827,"蠐":4828,"蠑":4829,"蠔":4830,"蠕":4831,"蠙":4832,"蠟":4833,"蠡":4834,"蠢":4835,"蠣":4836,"蠱":4837,"蠲":4838,"蠶":4839,"蠻":4840,"血":4841,"衆":4842,"衊":4843,"行":4844,"衍":4845,"衒":4846,"術":4847,"衕":4848,"街":4849,"衙":4850,"衚":4851,"衛":4852,"衝":4853,"衞":4854,"衡":4855,"衢":4856,"衣":4857,"表":4858,"衩":4859,"衪":4860,"衫":4861,"衰":4862,"衲":4863,"衷":4864,"衹":4865,"衽":4866,"袁":4867,"袈":4868,"袋":4869,"袍":4870,"袒":4871,"袖":4872,"袞":4873,"袤":4874,"被":4875,"袱":4876,"袴":4877,"裁":4878,"裂":4879,"裏":4880,"裔":4881,"裕":4882,"裘":4883,"裙":4884,"補":4885,"裝":4886,"裟":4887,"裡":4888,"裨":4889,"裱":4890,"裳":4891,"裴":4892,"裸":4893,"裹":4894,"製":4895,"裾":4896,"褂":4897,"複":4898,"褐":4899,"褒":4900,"褓":4901,"褔":4902,"褙":4903,"褚":4904,"褡":4905,"褥":4906,"褪":4907,"褫":4908,"褲":4909,"褶":4910,"褻":4911,"襁":4912,"襄":4913,"襖":4914,"襞":4915,"襟":4916,"襠":4917,"襪":4918,"襬":4919,"襯":4920,"襲":4921,"西":4922,"要":4923,"覃":4924,"覆":4925,"覈":4926,"見":4927,"規":4928,"覓":4929,"視":4930,"覡":4931,"覦":4932,"親":4933,"覬":4934,"覲":4935,"覷":4936,"覺":4937,"覽":4938,"觀":4939,"角":4940,"解":4941,"觴":4942,"觸":4943,"言":4944,"訂":4945,"訃":4946,"訇":4947,"計":4948,"訊":4949,"訌":4950,"討":4951,"訐":4952,"訓":4953,"訖":4954,"託":4955,"記":4956,"訛":4957,"訝":4958,"訟":4959,"訢":4960,"訣":4961,"訥":4962,"訪":4963,"設":4964,"許":4965,"訴":4966,"訶":4967,"診":4968,"註":4969,"証":4970,"詁":4971,"詅":4972,"詆":4973,"詈":4974,"詐":4975,"詒":4976,"詔":4977,"評":4978,"詘":4979,"詛":4980,"詞":4981,"詠":4982,"詡":4983,"詢":4984,"詣":4985,"試":4986,"詩":4987,"詫":4988,"詬":4989,"詭":4990,"詮":4991,"詰":4992,"話":4993,"該":4994,"詳":4995,"詹":4996,"詼":4997,"誅":4998,"誇":4999,"誌":5000,"認":5001,"誑":5002,"誓":5003,"誕":5004,"誘":5005,"語":5006,"誠":5007,"誡":5008,"誣":5009,"誤":5010,"誥":5011,"誦":5012,"誨":5013,"說":5014,"説":5015,"誰":5016,"課":5017,"誹":5018,"誼":5019,"誾":5020,"調":5021,"諂":5022,"談":5023,"諉":5024,"請":5025,"諍":5026,"諎":5027,"諏":5028,"諒":5029,"論":5030,"諛":5031,"諜":5032,"諡":5033,"諦":5034,"諧":5035,"諫":5036,"諭":5037,"諮":5038,"諱":5039,"諳":5040,"諷":5041,"諸":5042,"諺":5043,"諾":5044,"謀":5045,"謁":5046,"謂":5047,"謅":5048,"謇":5049,"謊":5050,"謎":5051,"謐":5052,"謔":5053,"謖":5054,"謗":5055,"謙":5056,"謚":5057,"講":5058,"謝":5059,"謠":5060,"謨":5061,"謫":5062,"謬":5063,"謳":5064,"謹":5065,"譁":5066,"證":5067,"譎":5068,"譏":5069,"譔":5070,"譖":5071,"識":5072,"譙":5073,"譚":5074,"譜":5075,"譞":5076,"譟":5077,"警":5078,"譬":5079,"譯":5080,"議":5081,"譴":5082,"護":5083,"譽":5084,"讀":5085,"讁":5086,"讉":5087,"變":5088,"讒":5089,"讓":5090,"讖":5091,"讚":5092,"讞":5093,"谷":5094,"谿":5095,"豁":5096,"豆":5097,"豇":5098,"豈":5099,"豌":5100,"豎":5101,"豐":5102,"豔":5103,"豕":5104,"豚":5105,"象":5106,"豢":5107,"豪":5108,"豫":5109,"豬":5110,"豳":5111,"豹":5112,"豺":5113,"貂":5114,"貉":5115,"貊":5116,"貌":5117,"貓":5118,"貔":5119,"貘":5120,"貝":5121,"貞":5122,"負":5123,"財":5124,"貢":5125,"貧":5126,"貨":5127,"販":5128,"貪":5129,"貫":5130,"責":5131,"貯":5132,"貲":5133,"貳":5134,"貴":5135,"貶":5136,"買":5137,"貸":5138,"費":5139,"貼":5140,"貽":5141,"貿":5142,"賀":5143,"賁":5144,"賂":5145,"賃":5146,"賄":5147,"資":5148,"賈":5149,"賊":5150,"賑":5151,"賒":5152,"賓":5153,"賙":5154,"賚":5155,"賜":5156,"賞":5157,"賠":5158,"賡":5159,"賢":5160,"賣":5161,"賤":5162,"賦":5163,"賧":5164,"賨":5165,"質":5166,"賬":5167,"賭":5168,"賴":5169,"賺":5170,"購":5171,"賽":5172,"贄":5173,"贅":5174,"贈":5175,"贊":5176,"贍":5177,"贏":5178,"贓":5179,"贔":5180,"贖":5181,"贗":5182,"贛":5183,"赤":5184,"赦":5185,"赧":5186,"赫":5187,"赭":5188,"走":5189,"赳":5190,"赴":5191,"起":5192,"趁":5193,"超":5194,"越":5195,"趕":5196,"趙":5197,"趟":5198,"趣":5199,"趨":5200,"趫":5201,"足":5202,"趴":5203,"趺":5204,"趾":5205,"跆":5206,"跋":5207,"跌":5208,"跏":5209,"跑":5210,"跖":5211,"跗":5212,"距":5213,"跟":5214,"跡":5215,"跤":5216,"跨":5217,"跪":5218,"路":5219,"跳":5220,"踊":5221,"踏":5222,"踐":5223,"踝":5224,"踞":5225,"踢":5226,"踩":5227,"踮":5228,"踰":5229,"踴":5230,"踵":5231,"蹀":5232,"蹂":5233,"蹄":5234,"蹇":5235,"蹈":5236,"蹉":5237,"蹊":5238,"蹋":5239,"蹏":5240,"蹕":5241,"蹛":5242,"蹟":5243,"蹤":5244,"蹦":5245,"蹬":5246,"蹭":5247,"蹲":5248,"蹴":5249,"蹶":5250,"蹺":5251,"蹻":5252,"蹼":5253,"躁":5254,"躅":5255,"躉":5256,"躋":5257,"躍":5258,"躑":5259,"躞":5260,"躪":5261,"身":5262,"躬":5263,"躲":5264,"躺":5265,"軀":5266,"車":5267,"軋":5268,"軌":5269,"軍":5270,"軒":5271,"軔":5272,"軛":5273,"軟":5274,"転":5275,"軸":5276,"軹":5277,"軻":5278,"軼":5279,"軾":5280,"較":5281,"輅":5282,"載":5283,"輒":5284,"輓":5285,"輔":5286,"輕":5287,"輛":5288,"輜":5289,"輝":5290,"輟":5291,"輦":5292,"輩":5293,"輪":5294,"輭":5295,"輯":5296,"輳":5297,"輸":5298,"輻":5299,"輾":5300,"輿":5301,"轂":5302,"轄":5303,"轅":5304,"轆":5305,"轉":5306,"轍":5307,"轎":5308,"轟":5309,"轡":5310,"轤":5311,"辛":5312,"辜":5313,"辟":5314,"辣":5315,"辦":5316,"辨":5317,"辭":5318,"辮":5319,"辯":5320,"辰":5321,"辱":5322,"農":5323,"辶":5324,"辺":5325,"辻":5326,"迂":5327,"迄":5328,"迅":5329,"迎":5330,"近":5331,"返":5332,"迢":5333,"迤":5334,"迥":5335,"迦":5336,"迨":5337,"迪":5338,"迫":5339,"迭":5340,"述":5341,"迴":5342,"迷":5343,"迸":5344,"迺":5345,"追":5346,"退":5347,"送":5348,"适":5349,"逃":5350,"逄":5351,"逅":5352,"逆":5353,"逋":5354,"逍":5355,"透":5356,"逐":5357,"途":5358,"逕":5359,"逖":5360,"逗":5361,"這":5362,"通":5363,"逛":5364,"逝":5365,"逞":5366,"速":5367,"造":5368,"逢":5369,"連":5370,"逮":5371,"週":5372,"進":5373,"逵":5374,"逶":5375,"逸":5376,"逼":5377,"逾":5378,"遁":5379,"遂":5380,"遇":5381,"遊":5382,"運":5383,"遍":5384,"過":5385,"遏":5386,"遐":5387,"遑":5388,"遒":5389,"道":5390,"達":5391,"違":5392,"遙":5393,"遛":5394,"遜":5395,"遞":5396,"遠":5397,"遡":5398,"遣":5399,"遨":5400,"適":5401,"遭":5402,"遮":5403,"遲":5404,"遴":5405,"遵":5406,"遶":5407,"遷":5408,"選":5409,"遹":5410,"遺":5411,"遼":5412,"遽":5413,"避":5414,"邀":5415,"邁":5416,"邂":5417,"邃":5418,"還":5419,"邇":5420,"邈":5421,"邊":5422,"邏":5423,"邐":5424,"邑":5425,"邕":5426,"邗":5427,"邘":5428,"邙":5429,"邛":5430,"邠":5431,"邡":5432,"邢":5433,"那":5434,"邦":5435,"邨":5436,"邪":5437,"邮":5438,"邯":5439,"邰":5440,"邱":5441,"邳":5442,"邴":5443,"邵":5444,"邶":5445,"邸":5446,"邾":5447,"郁":5448,"郃":5449,"郅":5450,"郊":5451,"郎":5452,"郕":5453,"郗":5454,"郝":5455,"郟":5456,"郡":5457,"郢":5458,"郤":5459,"部":5460,"郫":5461,"郭":5462,"郯":5463,"郴":5464,"郵":5465,"郷":5466,"都":5467,"郾":5468,"郿":5469,"鄂":5470,"鄄":5471,"鄆":5472,"鄉":5473,"鄒":5474,"鄕":5475,"鄖":5476,"鄘":5477,"鄙":5478,"鄚":5479,"鄜":5480,"鄞":5481,"鄠":5482,"鄢":5483,"鄣":5484,"鄧":5485,"鄩":5486,"鄭":5487,"鄯":5488,"鄰":5489,"鄱":5490,"鄲":5491,"鄴":5492,"鄺":5493,"酃":5494,"酆":5495,"酈":5496,"酉":5497,"酊":5498,"酋":5499,"酌":5500,"配":5501,"酒":5502,"酗":5503,"酚":5504,"酣":5505,"酥":5506,"酩":5507,"酪":5508,"酬":5509,"酮":5510,"酯":5511,"酵":5512,"酶":5513,"酷":5514,"酸":5515,"酹":5516,"醃":5517,"醇":5518,"醉":5519,"醋":5520,"醌":5521,"醍":5522,"醐":5523,"醒":5524,"醚":5525,"醛":5526,"醜":5527,"醞":5528,"醣":5529,"醫":5530,"醬":5531,"醮":5532,"醯":5533,"醱":5534,"醴":5535,"釀":5536,"釁":5537,"采":5538,"釉":5539,"釋":5540,"里":5541,"重":5542,"野":5543,"量":5544,"釐":5545,"金":5546,"釓":5547,"釗":5548,"釘":5549,"釙":5550,"釜":5551,"針":5552,"釣":5553,"釤":5554,"釦":5555,"釧":5556,"釩":5557,"釵":5558,"釷":5559,"鈀":5560,"鈇":5561,"鈈":5562,"鈉":5563,"鈍":5564,"鈎":5565,"鈐":5566,"鈔":5567,"鈕":5568,"鈞":5569,"鈣":5570,"鈦":5571,"鈧":5572,"鈮":5573,"鈰":5574,"鈴":5575,"鈷":5576,"鈸":5577,"鈹":5578,"鈺":5579,"鈽":5580,"鈾":5581,"鈿":5582,"鉀":5583,"鉄":5584,"鉅":5585,"鉆":5586,"鉉":5587,"鉍":5588,"鉑":5589,"鉕":5590,"鉗":5591,"鉛":5592,"鉝":5593,"鉞":5594,"鉢":5595,"鉤":5596,"鉬":5597,"鉭":5598,"鉮":5599,"鉰":5600,"鉲":5601,"鉸":5602,"鉻":5603,"銀":5604,"銃":5605,"銅":5606,"銑":5607,"銓":5608,"銖":5609,"銘":5610,"銚":5611,"銜":5612,"銠":5613,"銣":5614,"銥":5615,"銦":5616,"銨":5617,"銫":5618,"銬":5619,"銳":5620,"銷":5621,"銹":5622,"銻":5623,"鋁":5624,"鋂":5625,"鋅":5626,"鋇":5627,"鋌":5628,"鋒":5629,"鋤":5630,"鋪":5631,"鋯":5632,"鋰":5633,"鋸":5634,"鋹":5635,"鋼":5636,"錄":5637,"錐":5638,"錒":5639,"錕":5640,"錘":5641,"錚":5642,"錠":5643,"錡":5644,"錢":5645,"錦":5646,"錨":5647,"錩":5648,"錫":5649,"錮":5650,"錯":5651,"錳":5652,"錶":5653,"錼":5654,"鍅":5655,"鍆":5656,"鍇":5657,"鍊":5658,"鍋":5659,"鍍":5660,"鍔":5661,"鍛":5662,"鍥":5663,"鍬":5664,"鍱":5665,"鍵":5666,"鍶":5667,"鍺":5668,"鍼":5669,"鍾":5670,"鎂":5671,"鎇":5672,"鎊":5673,"鎌":5674,"鎏":5675,"鎔":5676,"鎖":5677,"鎗":5678,"鎘":5679,"鎚":5680,"鎝":5681,"鎢":5682,"鎦":5683,"鎧":5684,"鎬":5685,"鎭":5686,"鎮":5687,"鎳":5688,"鎵":5689,"鎶":5690,"鏃":5691,"鏈":5692,"鏊":5693,"鏐":5694,"鏖":5695,"鏗":5696,"鏘":5697,"鏜":5698,"鏞":5699,"鏟":5700,"鏡":5701,"鏢":5702,"鏹":5703,"鏻":5704,"鏽":5705,"鐃":5706,"鐐":5707,"鐘":5708,"鐙":5709,"鐫":5710,"鐮":5711,"鐲":5712,"鐳":5713,"鐵":5714,"鐸":5715,"鑀":5716,"鑄":5717,"鑊":5718,"鑌":5719,"鑑":5720,"鑒":5721,"鑞":5722,"鑠":5723,"鑣":5724,"鑫":5725,"鑭":5726,"鑰":5727,"鑲":5728,"鑼":5729,"鑽":5730,"鑾":5731,"鑿":5732,"钟":5733,"锺":5734,"長":5735,"門":5736,"閂":5737,"閃":5738,"閆":5739,"閉":5740,"開":5741,"閎":5742,"閏":5743,"閑":5744,"閒":5745,"間":5746,"閔":5747,"閘":5748,"閡":5749,"関":5750,"閣":5751,"閤":5752,"閥":5753,"閨":5754,"閩":5755,"閬":5756,"閭":5757,"閰":5758,"閱":5759,"閶":5760,"閹":5761,"閻":5762,"閾":5763,"闆":5764,"闇":5765,"闊":5766,"闋":5767,"闌":5768,"闍":5769,"闐":5770,"闓":5771,"闔":5772,"闕":5773,"闖":5774,"闚":5775,"關":5776,"闠":5777,"闡":5778,"闢":5779,"闤":5780,"闥":5781,"阜":5782,"阡":5783,"阪":5784,"阮":5785,"阱":5786,"防":5787,"阻":5788,"阿":5789,"陀":5790,"陂":5791,"附":5792,"陋":5793,"陌":5794,"降":5795,"限":5796,"陔":5797,"陘":5798,"陛":5799,"陝":5800,"陞":5801,"陟":5802,"陡":5803,"院":5804,"陣":5805,"除":5806,"陪":5807,"陰":5808,"陲":5809,"陳":5810,"陵":5811,"陶":5812,"陷":5813,"陸":5814,"陽":5815,"隄":5816,"隅":5817,"隆":5818,"隈":5819,"隊":5820,"隋":5821,"隍":5822,"階":5823,"隔":5824,"隕":5825,"隗":5826,"隘":5827,"隙":5828,"際":5829,"障":5830,"隧":5831,"隨":5832,"險":5833,"隰":5834,"隱":5835,"隴":5836,"隷":5837,"隸":5838,"隻":5839,"隼":5840,"雀":5841,"雁":5842,"雄":5843,"雅":5844,"集":5845,"雇":5846,"雉":5847,"雋":5848,"雌":5849,"雍":5850,"雎":5851,"雑":5852,"雒":5853,"雕":5854,"雖":5855,"雙":5856,"雛":5857,"雜":5858,"雞":5859,"離":5860,"難":5861,"雨":5862,"雩":5863,"雪":5864,"雯":5865,"雱":5866,"雲":5867,"零":5868,"雷":5869,"雹":5870,"電":5871,"需":5872,"霄":5873,"霆":5874,"震":5875,"霉":5876,"霍":5877,"霎":5878,"霑":5879,"霓":5880,"霖":5881,"霜":5882,"霞":5883,"霧":5884,"霰":5885,"露":5886,"霸":5887,"霹":5888,"霽":5889,"霾":5890,"靂":5891,"靄":5892,"靈":5893,"靉":5894,"青":5895,"靖":5896,"靚":5897,"靛":5898,"靜":5899,"非":5900,"靠":5901,"靡":5902,"面":5903,"靦":5904,"革":5905,"靳":5906,"靴":5907,"靶":5908,"靺":5909,"靼":5910,"鞅":5911,"鞆":5912,"鞋":5913,"鞍":5914,"鞏":5915,"鞘":5916,"鞠":5917,"鞣":5918,"鞦":5919,"鞨":5920,"鞭":5921,"韁":5922,"韃":5923,"韆":5924,"韈":5925,"韋":5926,"韌":5927,"韓":5928,"韙":5929,"韜":5930,"韞":5931,"韭":5932,"音":5933,"韶":5934,"韻":5935,"響":5936,"頁":5937,"頂":5938,"頃":5939,"項":5940,"順":5941,"須":5942,"頊":5943,"頌":5944,"頎":5945,"頏":5946,"預":5947,"頑":5948,"頒":5949,"頓":5950,"頗":5951,"領":5952,"頜":5953,"頠":5954,"頡":5955,"頤":5956,"頫":5957,"頭":5958,"頰":5959,"頷":5960,"頸":5961,"頹":5962,"頻":5963,"頼":5964,"顆":5965,"題":5966,"額":5967,"顎":5968,"顏":5969,"顒":5970,"顓":5971,"顗":5972,"願":5973,"顛":5974,"類":5975,"顥":5976,"顧":5977,"顫":5978,"顯":5979,"顱":5980,"顴":5981,"風":5982,"颮":5983,"颯":5984,"颱":5985,"颳":5986,"颶":5987,"飄":5988,"飆":5989,"飈":5990,"飛":5991,"食":5992,"飢":5993,"飧":5994,"飩":5995,"飪":5996,"飭":5997,"飯":5998,"飲":5999,"飼":6000,"飽":6001,"飾":6002,"餃":6003,"餅":6004,"餉":6005,"養":6006,"餌":6007,"餐":6008,"餑":6009,"餒":6010,"餓":6011,"餘":6012,"餚":6013,"餛":6014,"餞":6015,"餡":6016,"館":6017,"餬":6018,"餵":6019,"餾":6020,"餿":6021,"饅":6022,"饉":6023,"饋":6024,"饌":6025,"饑":6026,"饒":6027,"饗":6028,"饟":6029,"首":6030,"香":6031,"馥":6032,"馨":6033,"馬":6034,"馭":6035,"馮":6036,"馱":6037,"馳":6038,"馴":6039,"馼":6040,"駁":6041,"駐":6042,"駑":6043,"駒":6044,"駕":6045,"駙":6046,"駛":6047,"駝":6048,"駟":6049,"駢":6050,"駭":6051,"駱":6052,"駸":6053,"駿":6054,"騁":6055,"騎":6056,"騏":6057,"騒":6058,"騖":6059,"騙":6060,"騪":6061,"騫":6062,"騭":6063,"騮":6064,"騰":6065,"騶":6066,"騷":6067,"騾":6068,"驁":6069,"驂":6070,"驃":6071,"驅":6072,"驊":6073,"驌":6074,"驍":6075,"驕":6076,"驗":6077,"驚":6078,"驛":6079,"驟":6080,"驢":6081,"驤":6082,"驥":6083,"驪":6084,"骨":6085,"骯":6086,"骰":6087,"骸":6088,"骼":6089,"髀":6090,"髑":6091,"髒":6092,"髓":6093,"體":6094,"高":6095,"髡":6096,"髦":6097,"髮":6098,"髹":6099,"髻":6100,"髽":6101,"鬃":6102,"鬆":6103,"鬈":6104,"鬍":6105,"鬐":6106,"鬕":6107,"鬚":6108,"鬟":6109,"鬢":6110,"鬣":6111,"鬥":6112,"鬧":6113,"鬨":6114,"鬩":6115,"鬪":6116,"鬱":6117,"鬲":6118,"鬻":6119,"鬼":6120,"魁":6121,"魂":6122,"魄":6123,"魅":6124,"魈":6125,"魏":6126,"魔":6127,"魘":6128,"魚":6129,"魯":6130,"魷":6131,"鮎":6132,"鮑":6133,"鮟":6134,"鮪":6135,"鮭":6136,"鮮":6137,"鯀":6138,"鯁":6139,"鯉":6140,"鯊":6141,"鯓":6142,"鯖":6143,"鯛":6144,"鯡":6145,"鯤":6146,"鯧":6147,"鯨":6148,"鯰":6149,"鯽":6150,"鰂":6151,"鰍":6152,"鰓":6153,"鰣":6154,"鰤":6155,"鰩":6156,"鰭":6157,"鰱":6158,"鰲":6159,"鰹":6160,"鰻":6161,"鰾":6162,"鱇":6163,"鱈":6164,"鱉":6165,"鱒":6166,"鱖":6167,"鱗":6168,"鱘":6169,"鱟":6170,"鱲":6171,"鱷":6172,"鱸":6173,"鲁":6174,"鳥":6175,"鳧":6176,"鳩":6177,"鳯":6178,"鳳":6179,"鳴":6180,"鳶":6181,"鴆":6182,"鴉":6183,"鴕":6184,"鴗":6185,"鴛":6186,"鴞":6187,"鴟":6188,"鴣":6189,"鴦":6190,"鴨":6191,"鴻":6192,"鴿":6193,"鵑":6194,"鵓":6195,"鵜":6196,"鵝":6197,"鵠":6198,"鵡":6199,"鵩":6200,"鵪":6201,"鵫":6202,"鵬":6203,"鵰":6204,"鵲":6205,"鶇":6206,"鶉":6207,"鶘":6208,"鶚":6209,"鶩":6210,"鶯":6211,"鶴":6212,"鶻":6213,"鷂":6214,"鷈":6215,"鷓":6216,"鷗":6217,"鷟":6218,"鷯":6219,"鷲":6220,"鷸":6221,"鷹":6222,"鷺":6223,"鷽":6224,"鷿":6225,"鸚":6226,"鸛":6227,"鸞":6228,"鹵":6229,"鹹":6230,"鹼":6231,"鹽":6232,"鹿":6233,"麂":6234,"麈":6235,"麋":6236,"麒":6237,"麓":6238,"麗":6239,"麝":6240,"麟":6241,"麥":6242,"麩":6243,"麪":6244,"麯":6245,"麴":6246,"麵":6247,"麻":6248,"麼":6249,"麽":6250,"麾":6251,"麿":6252,"黃":6253,"黌":6254,"黍":6255,"黎":6256,"黏":6257,"黑":6258,"黔":6259,"默":6260,"黛":6261,"黜":6262,"黝":6263,"點":6264,"黟":6265,"黠":6266,"黨":6267,"黯":6268,"黴":6269,"黷":6270,"黻":6271,"黽":6272,"黿":6273,"鼎":6274,"鼐":6275,"鼓":6276,"鼕":6277,"鼠":6278,"鼩":6279,"鼬":6280,"鼱":6281,"鼴":6282,"鼻":6283,"齊":6284,"齋":6285,"齎":6286,"齒":6287,"齡":6288,"齣":6289,"齦":6290,"齧":6291,"齪":6292,"齲":6293,"齶":6294,"齷":6295,"龍":6296,"龐":6297,"龑":6298,"龔":6299,"龕":6300,"龜":6301,"龝":6302,"龢":6303,"︰":6304,"﹐":6305,"﹑":6306,"﹔":6307,"﹕":6308,"﹣":6309,"﹪":6310,"！":6311,"＂":6312,"％":6313,"＆":6314,"（":6315,"）":6316,"＋":6317,"，":6318,"－":6319,"．":6320,"／":6321,"０":6322,"２":6323,"３":6324,"４":6325,"：":6326,"；":6327,"＝":6328,"？":6329,"Ｓ":6330,"～":6331,"｢":6332,"｣":6333,"､":6334,"𠃉":6335,"𠃊":6336,"𠄌":6337,"𠊎":6338,"𠔻":6339,"𡦂":6340,"𡨸":6341,"𥗽":6342,"𨦡":6343,"𨭎":6344,"𪚥":6345,"\":":6346,"er":6347,"an":6348,"wer":6349,"ans":6350,"answer":6351,"answer_":6352,"\",":6353,"ar":6354,"st":6355,"te":6356,"id":6357,"xt":6358,"text":6359,"on":6360,"en":6361,"ra":6362,"ion":6363,"art":6364,"est":6365,"ag":6366,"ph":6367,"qu":6368,"end":6369,"agra":6370,"par":6371,"estion":6372,"question":6373,"agraph":6374,"paragraph":6375,"_id":6376,"_text":6377,"answer_st":6378,"answer_text":6379,"answer_end":6380,"question_text":6381,"paragraph_id":6382,"answer_start":6383,"},":6384,"?\",":6385,"19":6386,"20":6387,"ll":6388,"nu":6389,"null":6390,"哪一":6391,"。\",":6392,"10":6393,"18":6394,"中國":6395,"12":6396,"？\",":6397,"15":6398,"13":6399,"14":6400,"16":6401,"17":6402,"什麼":6403,"國家":6404,"00":6405,"政府":6406,"一個":6407,"地區":6408,"25":6409,"23":6410,"24":6411,"28":6412,"26":6413,"27":6414,"大學":6415,"主義":6416,"29":6417,"美國":6418,"30":6419,"世界":6420,"開始":6421,"香港":6422,"以及":6423,"主要":6424,"可以":6425,"200":6426,"世紀":6427,"11":6428,"經濟":6429,"日本":6430,"哪一個":6431,"人民":6432,"0年":6433,"第一":6434,"英國":6435,"發展":6436,"由於":6437,"部分":6438,"成為":6439,"時期":6440,"使用":6441,"社會":6442,"共和":6443,"城市":6444,"34":6445,"人口":6446,"包括":6447,"文化":6448,"35":6449,"研究":6450,"36":6451,"政治":6452,"中華":6453,"進行":6454,"38":6455,"37":6456,"9年":6457,"國際":6458,"其他":6459,"戰爭":6460,"199":6461,"歷史":6462,"位於":6463,"45":6464,"認為":6465,"公司":6466,"帝國":6467,"之一":6468,"40":6469,"39":6470,"大的":6471,"影響":6472,"其中":6473,"運動":6474,"當時":6475,"組織":6476,"成立":6477,"共和國":6478,"沒有":6479,"哪一年":6480,"代表":6481,"8年":6482,"羅馬":6483,"建立":6484,"47":6485,"之後":6486,"不同":6487,"1年":6488,"2年":6489,"195":6490,"他們":6491,"重要":6492,"科學":6493,"委員":6494,"的一":6495,"許多":6496,"通過":6497,"46":6498,"中央":6499,"臺灣":6500,"因此":6501,"稱為":6502,"歐洲":6503,"出現":6504,"中心":6505,"第二":6506,"全國":6507,"行政":6508,"50":6509,"22":6510,"4年":6511,"3年":6512,"中的":6513,"198":6514,"印度":6515,"德國":6516,"在哪一年":6517,"公里":6518,"系統":6519,"這些":6520,"同時":6521,"48":6522,"6年":6523,"法國":6524,"5年":6525,"上的":6526,"自由":6527,"因為":6528,"197":6529,"49":6530,"民國":6531,"語言":6532,"196":6533,"之間":6534,"發生":6535,"地方":6536,"」，":6537,"總統":6538,"7年":6539,"哪個":6540,"方面":6541,"工業":6542,"聯合":6543,"正式":6544,"時代":6545,"的人":6546,"民主":6547,"制度":6548,"一些":6549,"的是":6550,"60":6551,"委員會":6552,"時間":6553,"會議":6554,"教育":6555,"問題":6556,"學院":6557,"發現":6558,"屬於":6559,"大陸":6560,"民族":6561,"產生":6562,"形成":6563,"也是":6564,"人的":6565,"革命":6566,"時候":6567,"根據":6568,"已經":6569,"學家":6570,"獨立":6571,"這個":6572,"194":6573,"所有":6574,"利亞":6575,"21":6576,"33":6577,"可能":6578,"」。":6579,"58":6580,"組成":6581,"羅斯":6582,"70":6583,"作為":6584,"電視":6585,"68":6586,"是在":6587,"國民":6588,"擁有":6589,"59":6590,"面積":6591,"0年代":6592,"管理":6593,"一種":6594,"人民共和國":6595,"建築":6596,"69":6597,"理論":6598,"動物":6599,"關係":6600,"生物":6601,"57":6602,"軍事":6603,"67":6604,"提出":6605,"技術":6606,"一般":6607,"生產":6608,"對於":6609,"支持":6610,"現代":6611,"統治":6612,"自己":6613,"最高":6614,"工作":6615,"獲得":6616,"是由":6617,"韓國":6618,"80":6619,"政策":6620,"的大":6621,"中華人民共和國":6622,"還有":6623,"活動":6624,"希臘":6625,"期間":6626,"受到":6627,"55":6628,"領導":6629,"哪一種":6630,"朝鮮":6631,"學校":6632,"多數":6633,"44":6634,"目前":6635,"鐵路":6636,"\"《":6637,"機構":6638,"除了":6639,"傳統":6640,"軍隊":6641,"\"「":6642,"但是":6643,"兩個":6644,"方式":6645,"這一":6646,"來的":6647,"蒙古":6648,"90":6649,"事件":6650,"存在":6651,"雖然":6652,"最後":6653,"決定":6654,"尼亞":6655,"提供":6656,"66":6657,"他的":6658,"中華民國":6659,"88":6660,"選舉":6661,"控制":6662,"77":6663,"共產":6664,"成爲":6665,"進入":6666,"多少":6667,"基督":6668,"反對":6669,"並且":6670,"31":6671,"宗教":6672,"計劃":6673,"65":6674,"生活":6675,"100":6676,"細胞":6677,"通常":6678,"蘇聯":6679,"具有":6680,"造成":6681,"俄羅斯":6682,"單位":6683,"是誰":6684,"最早":6685,"北部":6686,"自然":6687,"皇帝":6688,"導致":6689,"這種":6690,"98":6691,"例如":6692,"海軍":6693,"年的":6694,"後來":6695,"來自":6696,"大量":6697,"人類":6698,"就是":6699,"南部":6700,"得到":6701,"工程":6702,"78":6703,"190":6704,"需要":6705,"成功":6706,"189":6707,"超過":6708,"成員":6709,"上海":6710,"條約":6711,"地位":6712,"規模":6713,"內的":6714,"要求":6715,"79":6716,"聯盟":6717,"主教":6718,"國的":6719,"半島":6720,"自治":6721,"都是":6722,"32":6723,"7月":6724,"只有":6725,"基礎":6726,"平方":6727,"殖民":6728,"現在":6729,"第三":6730,"保護":6731,"一直":6732,"名的":6733,"中共":6734,"000":6735,"8月":6736,"文學":6737,"99":6738,"改革":6739,"最大的":6740,"學生":6741,"為了":6742,"特別":6743,"阿拉":6744,"貿易":6745,"氣候":6746,"交通":6747,"負責":6748,"物理":6749,"基本":6750,"56":6751,"思想":6752,"使得":6753,"環境":6754,"台灣":6755,"逐漸":6756,"舉行":6757,"大部分":6758,"結束":6759,"北京":6760,"廣州":6761,"區域":6762,"作品":6763,"有關":6764,"設立":6765,"所以":6766,"分別":6767,"第一次":6768,"也有":6769,"於何":6770,"佛教":6771,"藝術":6772,"全球":6773,"方法":6774,"5月":6775,"不過":6776,"75":6777,"性的":6778,"43":6779,"9月":6780,"的原":6781,"89":6782,"權力":6783,"地球":6784,"統一":6785,"42":6786,"增加":6787,"法律":6788,"表示":6789,"農業":6790,"6月":6791,"議會":6792,"爆發":6793,"服務":6794,"居民":6795,"設計":6796,"共產黨":6797,"產業":6798,"電影":6799,"情況":6800,"重要的":6801,"物質":6802,"電子":6803,"倫敦":6804,"到了":6805,"10月":6806,"土地":6807,"00年":6808,"大會":6809,"新的":6810,"加入":6811,"標準":6812,"很多":6813,"毛澤":6814,"聯邦":6815,"毛澤東":6816,"平均":6817,"定的":6818,"1月":6819,"3月":6820,"主席":6821,"大戰":6822,"商業":6823,"12月":6824,"猶太":6825,"的主要":6826,"西方":6827,"之前":6828,"然而":6829,"音樂":6830,"太陽":6831,"4月":6832,"另外":6833,"當地":6834,"41":6835,"無法":6836,"早期":6837,"直接":6838,"範圍":6839,"西班":6840,"》，":6841,"西班牙":6842,"最終":6843,"87":6844,"學者":6845,"甚至":6846,"形式":6847,"萬人":6848,"取得":6849,"非常":6850,"市場":6851,"過程":6852,"此外":6853,"發表":6854,"接受":6855,"植物":6856,"公元":6857,"分為":6858,"相對":6859,"基督教":6860,"聯合國":6861,"體的":6862,"擔任":6863,"85":6864,"國內":6865,"憲法":6866,"採用":6867,"太平":6868,"地區的":6869,"大利":6870,"並不":6871,"開發":6872,"多的":6873,"76":6874,"國家的":6875,"95":6876,"188":6877,"規定":6878,"達到":6879,"平方公里":6880,"的時候":6881,"利用":6882,"名為":6883,"公路":6884,"結構":6885,"樣的":6886,"相當":6887,"必須":6888,"作用":6889,"實際":6890,"建設":6891,"結果":6892,"能夠":6893,"參與":6894,"被稱為":6895,"部隊":6896,"86":6897,"群島":6898,"第二次":6899,"企業":6900,"阿拉伯":6901,"比較":6902,"是一個":6903,"2月":6904,"不同的":6905,"政權":6906,"洛陽":6907,"11月":6908,"資源":6909,"軌道":6910,"完全":6911,"隨著":6912,"97":6913,"之間的":6914,"宣布":6915,"96":6916,"東北":6917,"西亞":6918,"12年":6919,"而且":6920,"193":6921,"187":6922,"唯一":6923,"第一個":6924,"首都":6925,"經過":6926,"區的":6927,"斯特":6928,"各種":6929,"議院":6930,"186":6931,"主張":6932,"公共":6933,"西部":6934,"的影響":6935,"名稱":6936,"廣播":6937,"南京":6938,"是一":6939,"重新":6940,"10年":6941,"處理":6942,"二十":6943,"實驗":6944,"14年":6945,"共同":6946,"領土":6947,"不能":6948,"合作":6949,"銀行":6950,"相關":6951,"機場":6952,"學的":6953,"。」":6954,"漢字":6955,"大多數":6956,"東南":6957,"分之":6958,"列寧":6959,"教會":6960,"斯坦":6961,"的國家":6962,"完成":6963,"以來":6964,"大約":6965,"的地":6966,"了一":6967,"境內":6968,"64":6969,"元素":6970,"以後":6971,"官方":6972,"定義":6973,"稱爲":6974,"領域":6975,"東西":6976,"為主":6977,"54":6978,"繼續":6979,"中國大陸":6980,"任何":6981,"概念":6982,"王朝":6983,"馬克":6984,"53":6985,"市的":6986,"實行":6987,"平原":6988,"用於":6989,"足球":6990,"格蘭":6991,"天文":6992,"指的是":6993,"製造":6994,"認爲":6995,"人員":6996,"參加":6997,"整個":6998,"文字":6999,"咖啡":7000,"政黨":7001,"清朝":7002,"王國":7003,"現象":7004,"發動":7005,"社會主義":7006,"不少":7007,"國會":7008,"52":7009,"63":7010,"直到":7011,"勢力":7012,"居住":7013,"附近":7014,"歷史上":7015,"集團":7016,"的一個":7017,"11年":7018,"民主黨":7019,"化學":7020,"185":7021,"世界大戰":7022,"自己的":7023,"羅馬帝國":7024,"出版":7025,"分子":7026,"阿爾":7027,"如果":7028,"舉辦":7029,"比賽":7030,"關於":7031,"都市":7032,"仍然":7033,"哪裡":7034,"在19":7035,"51":7036,"外交":7037,"不斷":7038,"94":7039,"立法":7040,"古代":7041,"記載":7042,"合併":7043,"保守":7044,"下的":7045,"有的":7046,"另一":7047,"廣泛":7048,"女性":7049,"後的":7050,"或者":7051,"曾經":7052,"高速":7053,"個人":7054,"：「":7055,"74":7056,"180":7057,"殖民地":7058,"人們":7059,"84":7060,"南北":7061,"太空":7062,"世界上":7063,"嚴重":7064,"改變":7065,"同年":7066,"權利":7067,"新聞":7068,"為何":7069,"62":7070,"年代":7071,"這是":7072,"作爲":7073,"天主教":7074,"廣東":7075,"13年":7076,"斯拉":7077,"首次":7078,"國王":7079,"義大利":7080,"階級":7081,"東部":7082,"承認":7083,"亞洲":7084,"各地":7085,"%，":7086,"行動":7087,"拿破":7088,"以上":7089,"中文":7090,"投票":7091,"距離":7092,"伊斯":7093,"原因":7094,"數量":7095,"的發展":7096,"73":7097,"位置":7098,"少數":7099,"拿破崙":7100,"科技":7101,"限制":7102,"拉丁":7103,"是以":7104,"執行":7105,"61":7106,"美洲":7107,"開放":7108,"解放":7109,"什麼時候":7110,"三個":7111,"有一":7112,"不是":7113,"戰役":7114,"中國的":7115,"奧運":7116,"美元":7117,"比亞":7118,"製作":7119,"金屬":7120,"山脈":7121,"因爲":7122,"16年":7123,"主義的":7124,"83":7125,"93":7126,"幾乎":7127,"機關":7128,"設置":7129,"於19":7130,"甚麼":7131,"移民":7132,"古典":7133,"主權":7134,"恢復":7135,"投資":7136,"變化":7137,"於何年":7138,"一次":7139,"旅遊":7140,"伊斯蘭":7141,"著名的":7142,"15年":7143,"當時的":7144,"行政區":7145,"西元":7146,"82":7147,"在20":7148,"北方":7149,"原子":7150,"增長":7151,"顯示":7152,"72":7153,"最大":7154,"高句":7155,"持續":7156,"長期":7157,"內容":7158,"車站":7159,"唐朝":7160,"在200":7161,"的重要":7162,"運輸":7163,"包含":7164,"71":7165,"君主":7166,"類似":7167,"則是":7168,"實施":7169,"部門":7170,"西南":7171,"人士":7172,"恆星":7173,"91":7174,"人在":7175,"幾年":7176,"航空":7177,"公園":7178,"它們":7179,"越南":7180,"集中":7181,"天皇":7182,"國務":7183,"至今":7184,"高句麗":7185,"比例":7186,"爾斯":7187,"百分之":7188,"管轄":7189,"120":7190,"之外":7191,"解釋":7192,"雙方":7193,"150":7194,"時期的":7195,"內部":7196,"是中國":7197,"92":7198,"哲學":7199,"文明":7200,"河流":7201,"產品":7202,"貴族":7203,"130":7204,"功能":7205,"在此":7206,"橫濱":7207,"運河":7208,"海岸":7209,"球隊":7210,"指揮":7211,"我們":7212,"資料":7213,"分裂":7214,"著作":7215,"程度":7216,"速度":7217,"溫度":7218,"透過":7219,"有些":7220,"初期":7221,"力量":7222,"滿洲":7223,"爾哈":7224,"非洲":7225,"主要的":7226,"部份":7227,"時的":7228,"減少":7229,"衛星":7230,"軍的":7231,"進攻":7232,"項目":7233,"在中國":7234,"每年":7235,"化的":7236,"圖書":7237,"簽訂":7238,"中山":7239,"取代":7240,"條件":7241,"行星":7242,"81":7243,"約翰":7244,"表現":7245,"電腦":7246,"事務":7247,"發明":7248,"解決":7249,"希望":7250,"來源":7251,"應用":7252,"184":7253,"州的":7254,"一帶":7255,"先後":7256,"成的":7257,"維持":7258,"1日":7259,"或是":7260,"第四":7261,"島嶼":7262,"相同":7263,"階段":7264,"紀念":7265,"觀點":7266,"體系":7267,"140":7268,"普遍":7269,"荷蘭":7270,"隨後":7271,"反應":7272,"議員":7273,"學術":7274,"160":7275,"主義者":7276,"分布":7277,"分類":7278,"是一種":7279,"192":7280,"」、":7281,"的研究":7282,"繼承":7283,"300":7284,"出的":7285,"媒體":7286,"當中":7287,"國民黨":7288,"佔領":7289,"網路":7290,"共有":7291,"南方":7292,"和平":7293,"擊敗":7294,"耶穌":7295,"加上":7296,"最初":7297,"國立":7298,"基因":7299,"會的":7300,"為什麼":7301,"物種":7302,"是指":7303,"狀態":7304,"中國共產黨":7305,"入侵":7306,"動力":7307,"是由於":7308,"風格":7309,"太平洋":7310,"的新":7311,"45年":7312,"總督":7313,"一年":7314,"共和黨":7315,"排名":7316,"以前":7317,"再次":7318,"司令":7319,"的特":7320,"如何":7321,"意義":7322,"選擇":7323,"創立":7324,"系列":7325,"行為":7326,"一樣":7327,"俄國":7328,"同盟":7329,"地理":7330,"市區":7331,"此後":7332,"並在":7333,"勝利":7334,"神戶":7335,"克蘭":7336,"於是":7337,"一步":7338,"大多":7339,"長的":7340,"建議":7341,"爾蘭":7342,"發行":7343,"信仰":7344,"特拉":7345,"目標":7346,"衝突":7347,"都有":7348,"儘管":7349,"等人":7350,"總理":7351,"還是":7352,"能力":7353,"2010年":7354,"179":7355,"爾哈赤":7356,"巴黎":7357,"全部":7358,"努爾哈赤":7359,"1949年":7360,"大學的":7361,"規劃":7362,"一世":7363,"普通":7364,"目的":7365,"十分":7366,"冠軍":7367,"愛爾蘭":7368,"海洋":7369,"農民":7370,"圖書館":7371,"動畫":7372,"收入":7373,"2008年":7374,"元朝":7375,"公民":7376,"但在":7377,"型的":7378,"政府的":7379,"價值":7380,"葡萄":7381,"資訊":7382,"量的":7383,"報告":7384,"》、":7385,"基地":7386,"漢語":7387,"遭到":7388,"經常":7389,"西北":7390,"計算":7391,"17年":7392,"明朝":7393,"引起":7394,"拒絕":7395,"體育":7396,"公元前":7397,"尼加":7398,"幾個":7399,"臺北":7400,"資本":7401,"加拿":7402,"描述":7403,"英格蘭":7404,"170":7405,"任命":7406,"他們的":7407,"用來":7408,"178":7409,"115":7410,"原住":7411,"地震":7412,"迅速":7413,"連接":7414,"武裝":7415,"以外":7416,"召開":7417,"官員":7418,"戰後":7419,"核心":7420,"著名":7421,"國民政府":7422,"是哪一":7423,"民間":7424,"財政":7425,"人數":7426,"實現":7427,"左右":7428,"克森":7429,"調查":7430,"東京":7431,"紐約":7432,"都會":7433,"尤其":7434,"114":7435,"2012年":7436,"福建":7437,"豐富":7438,"攻擊":7439,"20世紀":7440,"112":7441,"古希臘":7442,"生態":7443,"進一步":7444,"河南":7445,"交易":7446,"改為":7447,"貨幣":7448,"，「":7449,"代表大會":7450,"斯拉夫":7451,"」、「":7452,"兩種":7453,"前往":7454,"是什麼":7455,"現今":7456,"作戰":7457,"復興":7458,"175":7459,"的主":7460,"喬治":7461,"在這":7462,"多個":7463,"敘利亞":7464,"116":7465,"保持":7466,"英語":7467,"大臣":7468,"批評":7469,"重慶":7470,"一起":7471,"將軍":7472,"指出":7473,"熱帶":7474,"簡稱":7475,"會在":7476,"110":7477,"到達":7478,"後期":7479,"的高":7480,"不可":7481,"多明":7482,"多次":7483,"方向":7484,"破壞":7485,"的經濟":7486,"視為":7487,"烏克蘭":7488,"113":7489,"三年":7490,"建造":7491,"源於":7492,"結合":7493,"失敗":7494,"學習":7495,"法院":7496,"總部":7497,"者的":7498,"及其":7499,"專業":7500,"計畫":7501,"中部":7502,"宋朝":7503,"法案":7504,"自殺":7505,"2014年":7506,"博物":7507,"因素":7508,"採取":7509,"劉備":7510,"命名":7511,"猶太人":7512,"接近":7513,"中共中央":7514,"夏季":7515,"原本":7516,"是哪一個":7517,"有限":7518,"一詞":7519,"的地區":7520,"馬克思":7521,"他在":7522,"出了":7523,"的政治":7524,"二世":7525,"吉爾":7526,"爭議":7527,"而在":7528,"中原":7529,"綜合":7530,"大規模":7531,"波蘭":7532,"十年":7533,"柏林":7534,"氣溫":7535,"拉克":7536,"字母":7537,"應該":7538,"國務院":7539,"》、《":7540,"飛機":7541,"推行":7542,"知識":7543,"使用的":7544,"建立了":7545,"內戰":7546,"哪種":7547,"安全":7548,"死亡":7549,"海拔":7550,"變成":7551,"過去":7552,"全面":7553,"遊戲":7554,"保留":7555,"設施":7556,"加拿大":7557,"天體":7558,"子的":7559,"所在":7560,"能量":7561,"被認為":7562,"何時":7563,"利益":7564,"另一個":7565,"明顯":7566,"戰鬥":7567,"2009年":7568,"高速公路":7569,"並沒有":7570,"不久":7571,"學科":7572,"觀測":7573,"117":7574,"500":7575,"方言":7576,"2013年":7577,"來說":7578,"傳播":7579,"20年":7580,"166":7581,"組成的":7582,"任務":7583,"十二":7584,"塞爾":7585,"小時":7586,"語的":7587,"最早的":7588,"它的":7589,"記錄":7590,"240":7591,"不會":7592,"哥倫":7593,"%。":7594,"協會":7595,"四年":7596,"巴西":7597,"的一部分":7598,"家庭":7599,"工具":7600,"工會":7601,"2011年":7602,"人物":7603,"內閣":7604,"用的":7605,"19世紀":7606,"確定":7607,"團體":7608,"表面":7609,"地的":7610,"臺中":7611,"2005年":7612,"得以":7613,"節目":7614,"起來":7615,"177":7616,"有時":7617,"四川":7618,"大型":7619,"去世":7620,"中國人民":7621,"各國":7622,"流行":7623,"無政府":7624,"的人口":7625,"人大":7626,"允許":7627,"長江":7628,"127":7629,"176":7630,"230":7631,"解放軍":7632,"名字":7633,"氧化":7634,"道路":7635,"104":7636,"海外":7637,"出生":7638,"250":7639,"好的":7640,"何處":7641,"構成":7642,"港口":7643,"狀況":7644,"西洋":7645,"試圖":7646,"三國":7647,"同意":7648,"批准":7649,"2007年":7650,"常見":7651,"威廉":7652,"性質":7653,"推動":7654,"機械":7655,"165":7656,"工人":7657,"快速":7658,"博物館":7659,"力學":7660,"某些":7661,"瑞士":7662,"穩定":7663,"等等":7664,"維亞":7665,"美軍":7666,"里斯":7667,"展開":7668,"2000年":7669,"客家":7670,"精神":7671,"發達":7672,"的地方":7673,"金融":7674,"1945年":7675,"128":7676,"克斯":7677,"意識":7678,"為誰":7679,"處於":7680,"貝爾":7681,"體制":7682,"的歷史":7683,"稱呼":7684,"出口":7685,"勞動":7686,"一度":7687,"制定":7688,"幫助":7689,"往往":7690,"分析":7691,"外國":7692,"禁止":7693,"260":7694,"談判":7695,"起義":7696,"第二次世界大戰":7697,"之下":7698,"擴張":7699,"文藝":7700,"美國的":7701,"2006年":7702,"執政":7703,"市民":7704,"質量":7705,"168":7706,"不再":7707,"兩國":7708,"發起":7709,"部長":7710,"埃及":7711,"冬季":7712,"領袖":7713,"情況下":7714,"法蘭":7715,"競爭":7716,"第五":7717,"董事":7718,"2016年":7719,"118":7720,"火山":7721,"理學":7722,"139":7723,"164":7724,"今天":7725,"公開":7726,"基於":7727,"只是":7728,"巴爾":7729,"提高":7730,"材料":7731,"標誌":7732,"的水":7733,"色列":7734,"力的":7735,"擴大":7736,"125":7737,"只能":7738,"數學":7739,"簽署":7740,"而言":7741,"158":7742,"從而":7743,"統計":7744,"多明尼加":7745,"哥倫比亞":7746,"中有":7747,"四個":7748,"然後":7749,"蛋白":7750,"2015年":7751,"227":7752,"奧斯":7753,"音節":7754,"》\",":7755,"交流":7756,"在哪一個":7757,"將其":7758,"德懷":7759,"沿海":7760,"色的":7761,"設有":7762,"長官":7763,"葡萄牙":7764,"協議":7765,"投降":7766,"模式":7767,"紅軍":7768,"揚州":7769,"職業":7770,"一定":7771,"協助":7772,"卡爾":7773,"周恩":7774,"普魯":7775,"土耳":7776,"爲了":7777,"103":7778,"經濟學":7779,"400":7780,"》。":7781,"戰略":7782,"最多":7783,"當選":7784,"石油":7785,"聖誕":7786,"說法":7787,"159":7788,"土耳其":7789,"九龍":7790,"首相":7791,"並於":7792,"列車":7793,"等地":7794,"達成":7795,"重點":7796,"的一種":7797,"過程中":7798,"229":7799,"海峽":7800,"生命":7801,"路易":7802,"129":7803,"以及什麼":7804,"事業":7805,"父親":7806,"臨時":7807,"105":7808,"135":7809,"220":7810,"對外":7811,"彭德懷":7812,"無錫":7813,"象徵":7814,"量子":7815,"離開":7816,"人和":7817,"命令":7818,"森林":7819,"高度":7820,"高等":7821,"司法":7822,"意志":7823,"本身":7824,"興建":7825,"被迫":7826,"157":7827,"149":7828,"維克":7829,"醫學":7830,"280":7831,"主要是":7832,"威脅":7833,"東方":7834,"總面積":7835,"觀察":7836,"黃河":7837,"朝鮮半島":7838,"的原因":7839,"下降":7840,"汽車":7841,"維夫":7842,"遺產":7843,"107":7844,"書院":7845,"的小":7846,"穆斯":7847,"經營":7848,"108":7849,"帝國的":7850,"有所":7851,"積極":7852,"誰的":7853,"部落":7854,"俱樂":7855,"在美國":7856,"失去":7857,"帶來":7858,"年前":7859,"朝廷":7860,"派的":7861,"遺址":7862,"1997年":7863,"於何時":7864,"保守黨":7865,"公尺":7866,"文中":7867,"貢獻":7868,"飛行":7869,"國防":7870,"基金":7871,"放棄":7872,"電話":7873,"137":7874,"270":7875,"實際上":7876,"三大":7877,"優勢":7878,"和其他":7879,"聯軍":7880,"伊斯蘭教":7881,"俱樂部":7882,"創造":7883,"強調":7884,"有效":7885,"職位":7886,"138":7887,"產生的":7888,"以色列":7889,"差異":7890,"書記":7891,"艦隊":7892,"18年":7893,"的前":7894,"證明":7895,"路線":7896,"避免":7897,"哪一個國家":7898,"占領":7899,"專門":7900,"武器":7901,"領導人":7902,"醫院":7903,"英國的":7904,"穆斯林":7905,"作者":7906,"經歷":7907,"136":7908,"中期":7909,"作家":7910,"全世界":7911,"大連":7912,"複雜":7913,"伽利":7914,"按照":7915,"教授":7916,"浙江":7917,"澳洲":7918,"124":7919,"155":7920,"聯賽":7921,"高原":7922,"109":7923,"成立的":7924,"是因為":7925,"邊界":7926,"126":7927,"工廠":7928,"工黨":7929,"年間":7930,"的城市":7931,"169":7932,"西元幾年":7933,"224":7934,"李宗":7935,"課程":7936,"之戰":7937,"其後":7938,"家族":7939,"所謂":7940,"校長":7941,"權的":7942,"縣的":7943,"167":7944,"準備":7945,"空氣":7946,"討論":7947,"地利":7948,"姆斯":7949,"山東":7950,"理工":7951,"的方式":7952,"紀錄":7953,"誕生":7954,"奧運會":7955,"周恩來":7956,"分爲":7957,"近代":7958,"290":7959,"223":7960,"十字":7961,"高的":7962,"145":7963,"1950年":7964,"並非":7965,"有人":7966,"英文":7967,"頻道":7968,"廢除":7969,"測量":7970,"伽利略":7971,"225":7972,"因而":7973,"每個":7974,"無線":7975,"創作":7976,"奧地利":7977,"朝代":7978,"空間":7979,"成為了":7980,"上升":7981,"國軍":7982,"強烈":7983,"也會":7984,"危機":7985,"年來":7986,"方案":7987,"是否":7988,"此時":7989,"魯迅":7990,"伯特":7991,"委會":7992,"征服":7993,"特殊":7994,"147":7995,"香港的":7996,"228":7997,"226":7998,"中世紀":7999,"又稱":8000,"教堂":8001,"覆蓋":8002,"轄市":8003,"郵票":8004,"驅逐":8005,"156":8006,"134":8007,"參議院":8008,"吸引":8009,"奧林":8010,"島上":8011,"江南":8012,"自動":8013,"106":8014,"123":8015,"宇宙":8016,"島的":8017,"牛津":8018,"特爾":8019,"也被":8020,"兒子":8021,"哈爾":8022,"進行了":8023,"不僅":8024,"教宗":8025,"種類":8026,"形成了":8027,"五年":8028,"億元":8029,"族群":8030,"梁啟":8031,"球場":8032,"的海":8033,"辦公":8034,"元年":8035,"出來":8036,"戲劇":8037,"輻射":8038,"183":8039,"214":8040,"不滿":8041,"小說":8042,"直至":8043,"贏得":8044,"不得":8045,"之中":8046,"依據":8047,"天然":8048,"水平":8049,"的問題":8050,"三十":8051,"容易":8052,"對抗":8053,"形態":8054,"新竹":8055,"訓練":8056,"梁啟超":8057,"合法":8058,"模型":8059,"215":8060,"延伸":8061,"是從":8062,"的第一":8063,"粒子":8064,"雲南":8065,"科學家":8066,"協定":8067,"地形":8068,"意見":8069,"都華":8070,"101":8071,"看到":8072,"身份":8073,"降低":8074,"二零":8075,"健康":8076,"制的":8077,"拉斯":8078,"疾病":8079,"特別是":8080,"東南亞":8081,"213":8082,"二戰":8083,"的時間":8084,"稱之":8085,"缺乏":8086,"重建":8087,"書寫":8088,"珊瑚":8089,"種植":8090,"連續":8091,"各個":8092,"有許多":8093,"江蘇":8094,"來越":8095,"有多少":8096,"西安":8097,"出現了":8098,"物理學家":8099,"奧林匹":8100,"促進":8101,"南斯拉夫":8102,"真正":8103,"稱作":8104,"19年":8105,"235":8106,"獨立的":8107,"主持":8108,"全國人大":8109,"210":8110,"也可以":8111,"史稱":8112,"山地":8113,"至少":8114,"角色":8115,"148":8116,"163":8117,"普魯士":8118,"in":8119,"也在":8120,"建成":8121,"的成":8122,"線的":8123,"興起":8124,"首先":8125,"144":8126,"2004年":8127,"人民代表大會":8128,"汗國":8129,"總值":8130,"調整":8131,"182":8132,"25日":8133,"1999年":8134,"交換":8135,"如此":8136,"意思":8137,"經驗":8138,"荃灣":8139,"原則":8140,"古老":8141,"布魯":8142,"廣場":8143,"曹操":8144,"機器":8145,"長安":8146,"陳朝":8147,"全市":8148,"布爾":8149,"空軍":8150,"考慮":8151,"越來越":8152,"關注":8153,"建立的":8154,"同樣":8155,"男性":8156,"英特爾":8157,"長崎":8158,"物理學":8159,"南海":8160,"史都華":8161,"最低":8162,"校區":8163,"現實":8164,"212":8165,"——":8166,"沿岸":8167,"地鐵":8168,"支援":8169,"文章":8170,"重大":8171,"146":8172,"神話":8173,"運作":8174,"209":8175,"154":8176,"日本的":8177,"平等":8178,"教學":8179,"斯的":8180,"最佳":8181,"217":8182,"北市":8183,"南宋":8184,"定律":8185,"很大":8186,"有著":8187,"未能":8188,"東德":8189,"業務":8190,"皇家":8191,"所有的":8192,"中正":8193,"中海":8194,"什維克":8195,"加強":8196,"次於":8197,"武漢":8198,"而是":8199,"自由主義":8200,"119":8201,"估計":8202,"士兵":8203,"聖經":8204,"需求":8205,"丘陵":8206,"年輕":8207,"提及":8208,"滅亡":8209,"萊茵":8210,"鬥爭":8211,"以下":8212,"儀式":8213,"定居":8214,"的作品":8215,"這樣":8216,"高級":8217,"133":8218,"李宗仁":8219,"一位":8220,"壓力":8221,"戰俘":8222,"最重要的":8223,"華人":8224,"進步":8225,"類型":8226,"組織的":8227,"故事":8228,"重視":8229,"陸軍":8230,"174":8231,"澳門":8232,"物的":8233,"里亞":8234,"文藝復興":8235,"以上的":8236,"修改":8237,"十六":8238,"史上":8239,"天下":8240,"更加":8241,"朱元":8242,"機會":8243,"行政院":8244,"在哪一年時":8245,"主導":8246,"事實":8247,"互相":8248,"在哪一":8249,"地質":8250,"大西洋":8251,"巴拿":8252,"彰化":8253,"民黨":8254,"的什麼":8255,"122":8256,"360":8257,"朱元璋":8258,"下令":8259,"不足":8260,"加坡":8261,"多種":8262,"發布":8263,"聯繫":8264,"30年":8265,"城鎮":8266,"山大":8267,"幕府":8268,"首府":8269,"47年":8270,"傳教":8271,"引發":8272,"校園":8273,"湖南":8274,"相互":8275,"翻譯":8276,"206":8277,"創辦":8278,"在什麼":8279,"手段":8280,"源自":8281,"石器":8282,"追溯":8283,"153":8284,"巴拿馬":8285,"中學":8286,"傳說":8287,"在香港":8288,"最多的":8289,"氣體":8290,"產階級":8291,"針對":8292,"204":8293,"18世紀":8294,"相對論":8295,"人所":8296,"同一":8297,"新加坡":8298,"最為":8299,"畢業":8300,"102":8301,"密度":8302,"志願":8303,"本土":8304,"爲主":8305,"種族":8306,"紹興":8307,"財產":8308,"205":8309,"208":8310,"公司的":8311,"原住民":8312,"在於":8313,"多樣":8314,"娛樂":8315,"改善":8316,"比如":8317,"258":8318,"時代的":8319,"亞歷":8320,"屠殺":8321,"抗日":8322,"發現了":8323,"威爾斯":8324,"才能":8325,"損失":8326,"決議":8327,"相信":8328,"121":8329,"生產總值":8330,"奧林匹克":8331,"四大":8332,"完整":8333,"很快":8334,"德里":8335,"政體":8336,"民眾":8337,"領地":8338,"運動的":8339,"提出的":8340,"216":8341,"歐盟":8342,"河北":8343,"省的":8344,"脫離":8345,"馬來":8346,"203":8347,"二年":8348,"糧食":8349,"至於":8350,"羅斯福":8351,"僅次於":8352,"分離":8353,"滅絕":8354,"簡單":8355,"2002年":8356,"嚴格":8357,"變得":8358,"劃分":8359,"建國":8360,"數據":8361,"武帝":8362,"民視":8363,"當局":8364,"三角":8365,"其它":8366,"即使":8367,"小的":8368,"從事":8369,"從此":8370,"抵達":8371,"更多":8372,"眾多":8373,"239":8374,"自治區":8375,"大幅":8376,"德意志":8377,"會員":8378,"治療":8379,"維基":8380,"15日":8381,"17世紀":8382,"111":8383,"46年":8384,"電視台":8385,"地中海":8386,"士坦":8387,"大革命":8388,"安息":8389,"邊境":8390,"那些":8391,"都在":8392,"鎮壓":8393,"間的":8394,"亦有":8395,"回到":8396,"明確":8397,"237":8398,"238":8399,"形成的":8400,"滿洲國":8401,"停止":8402,"司馬":8403,"君士坦":8404,"奴隸":8405,"波斯":8406,"發電":8407,"警察":8408,"醫療":8409,"掌握":8410,"接收":8411,"經典":8412,"1000":8413,"提出了":8414,"中華民國政府":8415,"被認為是":8416,"安達":8417,"安陽":8418,"度的":8419,"獨裁":8420,"聲明":8421,"薩克森":8422,"行的":8423,"152":8424,"7日":8425,"傾向":8426,"特徵":8427,"的中":8428,"職務":8429,"規則":8430,"逐步":8431,"第一次世界大戰":8432,"修建":8433,"兄弟":8434,"山區":8435,"撤銷":8436,"文獻":8437,"會有":8438,"給予":8439,"身體":8440,"245":8441,"也就是":8442,"併入":8443,"候選":8444,"地處":8445,"宣佈":8446,"澳大":8447,"軟體":8448,"143":8449,"173":8450,"269":8451,"1952年":8452,"出現在":8453,"以南":8454,"流域":8455,"特色":8456,"由此":8457,"的基礎":8458,"胡適":8459,"食物":8460,"黃金":8461,"207":8462,"132":8463,"。《":8464,"五個":8465,"依然":8466,"兩大":8467,"北伐":8468,"廣西":8469,"青森":8470,"37年":8471,"塞爾維亞":8472,"修正":8473,"周圍":8474,"大致":8475,"天津":8476,"小組":8477,"球員":8478,"裝置":8479,"資格":8480,"電磁":8481,"1990年":8482,"方面的":8483,"安排":8484,"混合":8485,"相似":8486,"離子":8487,"億美元":8488,"太子":8489,"母親":8490,"面的":8491,"34年":8492,"名義":8493,"於西元幾年":8494,"物體":8495,"突厥":8496,"陸續":8497,"248":8498,"27年":8499,"系統的":8500,"下來":8501,"後者":8502,"書中":8503,"潮州":8504,"確立":8505,"而不":8506,"蒸汽":8507,"頒布":8508,"大量的":8509,"主任":8510,"再度":8511,"含有":8512,"商品":8513,"宣傳":8514,"福岡":8515,"這次":8516,"2000":8517,"257":8518,"278":8519,"君士坦丁":8520,"澳大利亞":8521,"困難":8522,"庫克":8523,"接觸":8524,"斯科":8525,"有線":8526,"表達":8527,"語系":8528,"256":8529,"247":8530,"分之一":8531,"取消":8532,"在其":8533,"未來":8534,"的支持":8535,"第六":8536,"關東":8537,"172":8538,"255":8539,"267":8540,"之亂":8541,"依照":8542,"呈現":8543,"查理":8544,"注意":8545,"監督":8546,"程式":8547,"網絡":8548,"華納":8549,"轉移":8550,"233":8551,"1980年代":8552,"2日":8553,"代謝":8554,"保障":8555,"在北":8556,"是日本":8557,"絕對":8558,"詹姆斯":8559,"在什麼時候":8560,"的社會":8561,"長度":8562,"6日":8563,"三世":8564,"事情":8565,"公署":8566,"尼斯":8567,"287":8568,"28年":8569,"2001年":8570,"科學院":8571,"可能是":8572,"唱片":8573,"數位":8574,"東亞":8575,"燃料":8576,"轉變":8577,"151":8578,"141":8579,"249":8580,"286":8581,"」。\",":8582,"勒斯":8583,"成了":8584,"的分":8585,"週期":8586,"142":8587,"259":8588,"246":8589,"36年":8590,"各自":8591,"教徒":8592,"第十":8593,"蔣中正":8594,"20日":8595,"傳統的":8596,"布爾什維克":8597,"並未":8598,"其餘":8599,"原理":8600,"城區":8601,"季風":8602,"徹底":8603,"效應":8604,"污染":8605,"社區":8606,"稱號":8607,"考試":8608,"達林":8609,"284":8610,"2003年":8611,"日軍":8612,"毫米":8613,"的關係":8614,"253":8615,"254":8616,"美國總統":8617,"運動會":8618,"巴爾幹":8619,"劉少":8620,"海上":8621,"矛盾":8622,"維護":8623,"實驗室":8624,"尤其是":8625,"劉少奇":8626,"以北":8627,"境內的":8628,"拜占":8629,"效果":8630,"正在":8631,"西哥":8632,"遺傳":8633,"289":8634,"1948年":8635,"天文學家":8636,"合成":8637,"合物":8638,"哪邊":8639,"地帶":8640,"大批":8641,"措施":8642,"獨特":8643,"的三":8644,"設備":8645,"責任":8646,"234":8647,"自身":8648,"行業":8649,"通車":8650,"降水":8651,"陸地":8652,"1991年":8653,"1958年":8654,"一致":8655,"也不":8656,"保存":8657,"南極":8658,"原始":8659,"威爾":8660,"態度":8661,"打擊":8662,"提到":8663,"斯克":8664,"終於":8665,"行使":8666,"這樣的":8667,"顏色":8668,"265":8669,"文化的":8670,"喬治亞":8671,"光緒":8672,"可見":8673,"在大":8674,"市內":8675,"成長":8676,"接壤":8677,"繪畫":8678,"131":8679,"264":8680,"1994年":8681,"傳入":8682,"小行星":8683,"攻打":8684,"教練":8685,"百萬":8686,"通訊":8687,"面對":8688,"哪一個人":8689,"蛋白質":8690,"亞歷山大":8691,"218":8692,"兩者":8693,"堅持":8694,"律賓":8695,"消失":8696,"率領":8697,"神聖":8698,"菲律賓":8699,"266":8700,"世界盃":8701,"獲得了":8702,"大樓":8703,"文物":8704,"會被":8705,"法的":8706,"隸屬於":8707,"232":8708,"263":8709,"279":8710,"得到了":8711,"其實":8712,"史達林":8713,"在位":8714,"場戰爭":8715,"老虎":8716,"自行":8717,"273":8718,"298":8719,"1970年代":8720,"代的":8721,"全體":8722,"北海":8723,"巨大":8724,"東海":8725,"歌劇":8726,"約有":8727,"236":8728,"244":8729,"277":8730,"全國人民代表大會":8731,"領導的":8732,"今日":8733,"兩次":8734,"在歐洲":8735,"徐州":8736,"移動":8737,"繁榮":8738,"較為":8739,"285":8740,"275":8741,"族的":8742,"的方法":8743,"私人":8744,"訊號":8745,"發現的":8746,"有限公司":8747,"。「":8748,"公布":8749,"歌曲":8750,"網站":8751,"賽事":8752,"軍官":8753,"農村":8754,"難以":8755,"231":8756,"1998年":8757,"副總統":8758,"婚姻":8759,"常務":8760,"援助":8761,"歡迎":8762,"的國":8763,"阿里":8764,"，《":8765,"結束後":8766,"對象":8767,"幾何":8768,"引入":8769,"推出":8770,"理念":8771,"什麼樣的":8772,"稱之為":8773,"平衡":8774,"消費":8775,"特定":8776,"的概念":8777,"能源":8778,"路德":8779,"道德":8780,"243":8781,"299":8782,"1941年":8783,"建築物":8784,"219":8785,"8日":8786,"星的":8787,"產量":8788,"起源":8789,"288":8790,"276":8791,"296":8792,"包括了":8793,"在哪一年的時候":8794,"」?\",":8795,"商人":8796,"單一":8797,"指導":8798,"推廣":8799,"提升":8800,"是美國":8801,"決賽":8802,"返回":8803,"171":8804,"官方語言":8805,"另一方面":8806,"少數民族":8807,"常見的":8808,"前的":8809,"嘗試":8810,"地面":8811,"就有":8812,"平民":8813,"德拉":8814,"成就":8815,"最近":8816,"為止":8817,"盧安達":8818,"組建":8819,"資金":8820,"162":8821,"特拉維夫":8822,"並將":8823,"市長":8824,"有機":8825,"龍江":8826,"306":8827,"列為":8828,"創建":8829,"古斯":8830,"古羅馬":8831,"同性":8832,"在一":8833,"的西":8834,"目的是":8835,"被稱爲":8836,"規範":8837,"觀念":8838,"268":8839,"350":8840,"1996年":8841,"早期的":8842,"協調":8843,"大小":8844,"家的":8845,"很大的":8846,"義務":8847,"聲稱":8848,"西斯":8849,"307":8850,"國共":8851,"整體":8852,"新北市":8853,"移交":8854,"總人口":8855,"美尼亞":8856,"防止":8857,"191":8858,"生物學":8859,"志願軍":8860,"211":8861,"加勒":8862,"周邊":8863,"市中心":8864,"朱德":8865,"死後":8866,"涉及":8867,"長達":8868,"顯著":8869,"28日":8870,"哪個國家":8871,"七年":8872,"信息":8873,"北宋":8874,"天文學":8875,"延邊":8876,"東漢":8877,"發射":8878,"麥克":8879,"295":8880,"發展的":8881,"具體":8882,"哲學家":8883,"報紙":8884,"投入":8885,"末期":8886,"申請":8887,"立場":8888,"而成":8889,"與其他":8890,"運用":8891,"食品":8892,"181":8893,"拜占庭":8894,"北韓":8895,"在何時":8896,"密切":8897,"對應":8898,"數字":8899,"是為":8900,"爭取":8901,"理解":8902,"聲音":8903,"證據":8904,"阿森":8905,"161":8906,"340":8907,"資本主義":8908,"4日":8909,"5日":8910,"亞美尼亞":8911,"即位":8912,"地點":8913,"常常":8914,"派遣":8915,"演化":8916,"版本":8917,"表演":8918,"西蘭":8919,"10日":8920,"六年":8921,"兵力":8922,"出來的":8923,"努力":8924,"吸收":8925,"將領":8926,"小麥":8927,"帶領":8928,"斯堡":8929,"於哪一年":8930,"機的":8931,"漢中":8932,"留下":8933,"轟炸":8934,"黑龍江":8935,"產生了":8936,"區分":8937,"大氣":8938,"授予":8939,"推翻":8940,"書籍":8941,"杭州":8942,"消滅":8943,"瑞典":8944,"的權力":8945,"親自":8946,"297":8947,"一名":8948,"清廷":8949,"等級":8950,"紡織":8951,"股份":8952,"航海":8953,"308":8954,"的一些":8955,"作物":8956,"兩年":8957,"巴勒":8958,"普及":8959,"的國際":8960,"相比":8961,"經由":8962,"融合":8963,"表明":8964,"201":8965,"293":8966,"世紀的":8967,"戰爭中":8968,"法蘭克":8969,"任期":8970,"化合物":8971,"廣義":8972,"心臟":8973,"政變":8974,"曾在":8975,"本地":8976,"總司令":8977,"習慣":8978,"衛生":8979,"集體":8980,"202":8981,"262":8982,"戰爭的":8983,"1992年":8984,"人文":8985,"專輯":8986,"已有":8987,"意大利":8988,"烏拉":8989,"的地位":8990,"紐西蘭":8991,"羣島":8992,"頻率":8993,"高達":8994,"1960年代":8995,"所在地":8996,"600":8997,"一級":8998,"中東":8999,"主流":9000,"了一個":9001,"保證":9002,"分鐘":9003,"宣稱":9004,"性別":9005,"滿足":9006,"蘇維":9007,"西藏":9008,"議題":9009,"首位":9010,"241":9011,"候選人":9012,"個月":9013,"國人":9014,"式的":9015,"提名":9016,"為一":9017,"理事":9018,"的中心":9019,"納粹":9020,"這裡":9021,"類的":9022,"25年":9023,"274":9024,"38年":9025,"名詞":9026,"擴展":9027,"機車":9028,"神學":9029,"適合":9030,"24日":9031,"304":9032,"國際機場":9033,"來自於":9034,"拉丁語":9035,"巴勒斯坦":9036,"克里":9037,"是屬於":9038,"沫若":9039,"紛紛":9040,"郭沫若":9041,"294":9042,"法國的":9043,"1960年":9044,"價格":9045,"免費":9046,"利斯":9047,"宣言":9048,"循環":9049,"文件":9050,"正常":9051,"生的":9052,"的土地":9053,"相繼":9054,"而被":9055,"至此":9056,"認識":9057,"1989年":9058,"310":9059,"依賴":9060,"分配":9061,"導體":9062,"拜仁":9063,"登陸":9064,"線路":9065,"蘇格蘭":9066,"說明":9067,"說的":9068,"部的":9069,"社會的":9070,"以此":9071,"北美":9072,"外的":9073,"契丹":9074,"澤西":9075,"邀請":9076,"金山":9077,"251":9078,"23日":9079,"309":9080,"1990年代":9081,"有線電視":9082,"不列":9083,"報導":9084,"學位":9085,"對手":9086,"形象":9087,"郵政":9088,"防禦":9089,"韓戰":9090,"14日":9091,"252":9092,"242":9093,"305":9094,"香港中文":9095,"中國人民解放軍":9096,"十字軍":9097,"世凱":9098,"區別":9099,"十一":9100,"和約":9101,"因斯坦":9102,"客運":9103,"新疆":9104,"緬甸":9105,"走向":9106,"35年":9107,"成立了":9108,"最高的":9109,"成員國":9110,"元首":9111,"出自":9112,"區內":9113,"愛因斯坦":9114,"構造":9115,"的總":9116,"蘇丹":9117,"24年":9118,"動物的":9119,"哈爾濱":9120,"315":9121,"以什麼":9122,"例子":9123,"印刷":9124,"呼吸":9125,"政務":9126,"福音":9127,"電台":9128,"電漿":9129,"鴉片":9130,"鼓勵":9131,"德國的":9132,"共產主義":9133,"原住民族":9134,"蘇維埃":9135,"一部分":9136,"到的":9137,"包圍":9138,"博士":9139,"太宗":9140,"檔案":9141,"袁世凱":9142,"角度":9143,"評論":9144,"首個":9145,"283":9146,"222":9147,"提供了":9148,"中最":9149,"勞工":9150,"小平":9151,"尼西亞":9152,"必烈":9153,"成分":9154,"截至":9155,"華北":9156,"解散":9157,"麻省":9158,"中國國民黨":9159,"271":9160,"可以在":9161,"不列顛":9162,"上帝":9163,"下游":9164,"伊拉克":9165,"但由於":9166,"作出":9167,"反抗":9168,"將會":9169,"延續":9170,"忽必烈":9171,"收購":9172,"晚期":9173,"盆地":9174,"細菌":9175,"被視為":9176,"錯誤":9177,"階層":9178,"風景":9179,"中間":9180,"亨利":9181,"固定":9182,"悠久":9183,"撤退":9184,"網際":9185,"背景":9186,"運行":9187,"金正":9188,"北部的":9189,"古老的":9190,"在西":9191,"外線":9192,"戰敗":9193,"特性":9194,"現存":9195,"皇后":9196,"都督":9197,"阻止":9198,"261":9199,"30日":9200,"314":9201,"大選":9202,"抵抗":9203,"時報":9204,"漢人":9205,"營運":9206,"用戶":9207,"相反":9208,"城市的":9209,"390":9210,"1978年":9211,"現在的":9212,"珊瑚礁":9213,"明治":9214,"約瑟":9215,"網球":9216,"考古":9217,"長城":9218,"網際網路":9219,"公立":9220,"出席":9221,"地下":9222,"寫的":9223,"後世":9224,"是於":9225,"的理論":9226,"長沙":9227,"陷入":9228,"380":9229,"」\",":9230,"之地":9231,"兩岸":9232,"加索":9233,"在內的":9234,"成熟":9235,"早在":9236,"條例":9237,"清軍":9238,"現時":9239,"發出":9240,"鄧小平":9241,"電流":9242,"餘人":9243,"29年":9244,"第二大":9245,"or":9246,"一切":9247,"何人":9248,"保羅":9249,"多久":9250,"師範":9251,"必要":9252,"新教":9253,"是在哪一年":9254,"歌手":9255,"無論":9256,"祖先":9257,"第八":9258,"襲擊":9259,"隨着":9260,"馬斯":9261,"黨內":9262,"26日":9263,"河南省":9264,"麻省理工":9265,"印尼":9266,"墨西哥":9267,"定了":9268,"對此":9269,"恐怖":9270,"漢族":9271,"獲勝":9272,"美術":9273,"而非":9274,"雜誌":9275,"1947年":9276,"303":9277,"加拉":9278,"十八":9279,"婦女":9280,"實力":9281,"成本":9282,"托爾":9283,"拍攝":9284,"是世界上":9285,"更為":9286,"杉磯":9287,"梅克":9288,"洛杉磯":9289,"為哪一":9290,"馬拉":9291,"27日":9292,"3日":9293,"312":9294,"名爲":9295,"演唱":9296,"理想":9297,"知道":9298,"自成":9299,"芬蘭":9300,"訪問":9301,"語和":9302,"面臨":9303,"18日":9304,"17日":9305,"272":9306,"1955年":9307,"行政長官":9308,"700":9309,"侵略":9310,"則有":9311,"多國":9312,"夫人":9313,"年平均":9314,"有了":9315,"的工作":9316,"的學生":9317,"立憲":9318,"自從":9319,"該國":9320,"諾貝爾":9321,"逝世":9322,"政治局":9323,"辦公室":9324,"一系列":9325,"數的":9326,"望遠":9327,"清代":9328,"省份":9329,"論文":9330,"23年":9331,"其他的":9332,"1980年":9333,"313":9334,"9日":9335,"九年":9336,"交界":9337,"伊朗":9338,"保育":9339,"反映":9340,"學會":9341,"專區":9342,"巨大的":9343,"心理學":9344,"戰國":9345,"沙漠":9346,"的作者":9347,"符合":9348,"黨員":9349,"221":9350,"1982年":9351,"基督徒":9352,"相關的":9353,"人權":9354,"學堂":9355,"崛起":9356,"康熙":9357,"摔角":9358,"青年":9359,"高於":9360,"高加索":9361,"282":9362,"教育部":9363,"望遠鏡":9364,"不到":9365,"人均":9366,"副主席":9367,"動作":9368,"和什麼":9369,"提倡":9370,"波羅":9371,"烏斯":9372,"突破":9373,"納入":9374,"英屬":9375,"血壓":9376,"裝備":9377,"親王":9378,"黨的":9379,"人民幣":9380,"1950年代":9381,"南部的":9382,"萊茵河":9383,"君士坦丁堡":9384,"出任":9385,"卡拉":9386,"日常":9387,"是不":9388,"法令":9389,"淡水":9390,"的外":9391,"省政府":9392,"記者":9393,"開展":9394,"高麗":9395,"281":9396,"30年代":9397,"22日":9398,"1984年":9399,"山西":9400,"永久":9401,"率軍":9402,"紅色":9403,"莫斯科":9404,"轄區":9405,"遷至":9406,"聯合會":9407,"海岸線":9408,"先進":9409,"光學":9410,"南下":9411,"另一種":9412,"定為":9413,"生存":9414,"約為":9415,"聚居":9416,"詞彙":9417,"購買":9418,"銷售":9419,"特別行政區":9420,"文中提及":9421,"\\\"":9422,"依靠":9423,"出兵":9424,"南美洲":9425,"巴士":9426,"形狀":9427,"新界":9428,"根本":9429,"溫和":9430,"的統治":9431,"胰島":9432,"鄰近":9433,"釋放":9434,"16世紀":9435,"第一位":9436,"1993年":9437,"羅馬尼亞":9438,"橫濱市":9439,"之稱":9440,"人工":9441,"前後":9442,"每天":9443,"激烈":9444,"獎項":9445,"證實":9446,"賽德":9447,"賽普":9448,"退出":9449,"途徑":9450,"選出":9451,"1995年":9452,"造成的":9453,"316":9454,"園區":9455,"培養":9456,"多年":9457,"彼得":9458,"很少":9459,"東羅馬":9460,"牛頓":9461,"而不是":9462,"語音":9463,"足夠":9464,"292":9465,"1986年":9466,"1979年":9467,"石器時代":9468,"香港中文大學":9469,"他是":9470,"兒童":9471,"分佈":9472,"分支":9473,"字體":9474,"效率":9475,"正確":9476,"決策":9477,"派系":9478,"福利":9479,"而來":9480,"諸葛":9481,"那霸":9482,"發生了":9483,"附近的":9484,"下薩克森":9485,"太后":9486,"德語":9487,"是最":9488,"東歐":9489,"為首":9490,"的權利":9491,"認同":9492,"語族":9493,"電力":9494,"一條":9495,"劉裕":9496,"唐代":9497,"國旗":9498,"多倫":9499,"岳陽":9500,"批判":9501,"春秋":9502,"本科":9503,"標記":9504,"權威":9505,"流動":9506,"的哪一":9507,"的軍事":9508,"知名":9509,"該市":9510,"軍團":9511,"較高":9512,"鄭成功":9513,"飲食":9514,"經濟發展":9515,"基本上":9516,"聯合國軍":9517,"800":9518,"公約":9519,"加工":9520,"圖曼":9521,"授權":9522,"特斯拉":9523,"當作":9524,"的兩":9525,"與其":9526,"舞蹈":9527,"觀光":9528,"近年來":9529,"重力":9530,"隨即":9531,"類型的":9532,"1920年":9533,"世界的":9534,"馬克思主義":9535,"克林":9536,"加以":9537,"半球":9538,"在日本":9539,"州市":9540,"消息":9541,"的發":9542,"程序":9543,"第七":9544,"1974年":9545,"選舉中":9546,"主動":9547,"個國家":9548,"奪取":9549,"常委會":9550,"樞紐":9551,"登堡":9552,"白色":9553,"的政策":9554,"的領土":9555,"萬平方公里":9556,"12日":9557,"成立後":9558,"1954年":9559,"1956年":9560,"當地的":9561,"乾燥":9562,"事變":9563,"企圖":9564,"信奉":9565,"列入":9566,"化石":9567,"喜歡":9568,"國有":9569,"地勢":9570,"就會":9571,"局面":9572,"影片":9573,"攝氏":9574,"改名為":9575,"智慧":9576,"更是":9577,"自稱":9578,"關鍵":9579,"靠近":9580,"11日":9581,"研究所":9582,"1951年":9583,"舉行的":9584,"al":9585,"at":9586,"下轄":9587,"哺乳":9588,"國語":9589,"尚書":9590,"市政府":9591,"平面":9592,"戰場":9593,"暴力":9594,"板塊":9595,"爾特":9596,"球季":9597,"的語言":9598,"薩克":9599,"財富":9600,"遼東":9601,"配合":9602,"馬利亞":9603,"370":9604,"歷史學家":9605,"臺灣的":9606,"工程師":9607,"1939年":9608,"處理器":9609,"334":9610,"主力":9611,"人體":9612,"協商":9613,"帶有":9614,"挑戰":9615,"是哪":9616,"東晉":9617,"機制":9618,"氫氣":9619,"演變":9620,"的公":9621,"的結果":9622,"社民黨":9623,"米爾":9624,"貴州":9625,"釣魚":9626,"可以追溯":9627,"1966年":9628,"會議上":9629,"第三次":9630,"居住在":9631,"交易所":9632,"335":9633,"區和":9634,"大理":9635,"懷疑":9636,"抗議":9637,"新建":9638,"月球":9639,"漸漸":9640,"的部分":9641,"的軍隊":9642,"的基本":9643,"華南":9644,"16日":9645,"302":9646,"同時也":9647,"1961年":9648,"胰島素":9649,"乾隆":9650,"加爾":9651,"十九":9652,"只要":9653,"在當時":9654,"學說":9655,"探索":9656,"是用":9657,"格式":9658,"的文化":9659,"確認":9660,"聚集":9661,"野生":9662,"29日":9663,"人民政府":9664,"1953年":9665,"事實上":9666,"五月":9667,"享有":9668,"哥華":9669,"天氣":9670,"孫權":9671,"引進":9672,"探測":9673,"斯基":9674,"方便":9675,"是有":9676,"更多的":9677,"李自成":9678,"極端":9679,"組合":9680,"色彩":9681,"資助":9682,"過渡":9683,"預算":9684,"高雄":9685,"1987年":9686,"制度的":9687,"生活在":9688,"太陽系":9689,"集中在":9690,"上述":9691,"凡爾":9692,"割讓":9693,"古拉":9694,"湖北":9695,"漢諾":9696,"眾議院":9697,"草原":9698,"較大":9699,"電車":9700,"26年":9701,"是由誰":9702,"河流域":9703,"ic":9704,"乘客":9705,"信徒":9706,"優秀":9707,"內陸":9708,"兼任":9709,"國號":9710,"混亂":9711,"溫哥華":9712,"琉球":9713,"米亞":9714,"級市":9715,"這段":9716,"道的":9717,"雨量":9718,"301":9719,"可能會":9720,"唯一的":9721,"賽普勒斯":9722,"佛羅":9723,"典禮":9724,"北魏":9725,"句話":9726,"大眾":9727,"為哪一個":9728,"管制":9729,"糖尿":9730,"裝甲":9731,"認可":9732,"賦予":9733,"車輛":9734,"遷移":9735,"里達":9736,"291":9737,"廣播公司":9738,"傳佛教":9739,"千米":9740,"印第":9741,"情形":9742,"所屬":9743,"是對":9744,"爭論":9745,"的情況下":9746,"發生在":9747,"印第安":9748,"使其":9749,"內地":9750,"分成":9751,"叛亂":9752,"和哪一個":9753,"女真":9754,"孟加拉":9755,"季節":9756,"尋求":9757,"形容":9758,"得名":9759,"心理":9760,"成都":9761,"挪威":9762,"核酸":9763,"灣仔":9764,"爆炸":9765,"生長":9766,"的定義":9767,"簡化":9768,"舊金山":9769,"頻繁":9770,"黃帝":9771,"的人為誰":9772,"二十世紀":9773,"托爾金":9774,"三種":9775,"危險":9776,"命名為":9777,"扮演":9778,"接管":9779,"是世界":9780,"本書":9781,"符號":9782,"陝西":9783,"鞏固":9784,"1918年":9785,"主要有":9786,"發生的":9787,"工業革命":9788,"21日":9789,"範圍內":9790,"相當於":9791,"一段":9792,"一項":9793,"並以":9794,"主辦":9795,"了解":9796,"了什麼":9797,"六個":9798,"國土":9799,"平定":9800,"廈門":9801,"激進":9802,"為基礎":9803,"爾德":9804,"發揮":9805,"的最":9806,"的大學":9807,"行爲":9808,"裝飾":9809,"設在":9810,"軍艦":9811,"都可以":9812,"1968年":9813,"住宅":9814,"北洋":9815,"器官":9816,"實踐":9817,"封建":9818,"射線":9819,"張學":9820,"徹斯特":9821,"普查":9822,"曼尼":9823,"江西":9824,"的控制":9825,"積分":9826,"立即":9827,"適應":9828,"影響力":9829,"之後的":9830,"驅逐艦":9831,"伯利亞":9832,"先生":9833,"匯豐":9834,"員工":9835,"地域":9836,"孟買":9837,"改造":9838,"本人":9839,"東羅馬帝國":9840,"活躍":9841,"爭奪":9842,"英法":9843,"藥物":9844,"詩人":9845,"詩歌":9846,"19日":9847,"2017年":9848,"女性主義":9849,"一是":9850,"中亞":9851,"仍有":9852,"位居":9853,"信號":9854,"停戰":9855,"儲存":9856,"基斯坦":9857,"多人":9858,"大公":9859,"安裝":9860,"審判":9861,"建於":9862,"意味":9863,"播出":9864,"收復":9865,"新世":9866,"東北部":9867,"省級":9868,"策略":9869,"綠色":9870,"萬年前":9871,"辯論":9872,"遊客":9873,"隕石":9874,"中心的":9875,"337":9876,"下議院":9877,"中被":9878,"供應":9879,"傑克森":9880,"單獨":9881,"場所":9882,"巴基斯坦":9883,"慈禧":9884,"是中華人民共和國":9885,"職權":9886,"膨脹":9887,"興趣":9888,"英軍":9889,"什麼東西":9890,"第一屆":9891,"委員長":9892,"1940年":9893,"統治者":9894,"大規模的":9895,"奧林匹克運動會":9896,"馬來西亞":9897,"336":9898,"低於":9899,"公主":9900,"和大":9901,"完善":9902,"尚未":9903,"於此":9904,"流傳":9905,"溫帶":9906,"演員":9907,"當年":9908,"百年":9909,"精確":9910,"西湖":9911,"語法":9912,"鋼鐵":9913,"黨派":9914,"香港政府":9915,"並不是":9916,"抗日戰爭":9917,"糖尿病":9918,"張學良":9919,"京都":9920,"人為":9921,"何種":9922,"圖像":9923,"宦官":9924,"專利":9925,"對其":9926,"小學":9927,"攝影":9928,"改爲":9929,"畫質":9930,"知的":9931,"與此":9932,"請求":9933,"開通":9934,"難民":9935,"雷達":9936,"1946年":9937,"成立於":9938,"中央軍":9939,"出現的":9940,"印度的":9941,"1972年":9942,"天文台":9943,"傳教士":9944,"下薩克森邦":9945,"一百":9946,"三次":9947,"元音":9948,"在英國":9949,"宜昌":9950,"提議":9951,"準確":9952,"漢朝":9953,"爵士":9954,"的中國":9955,"的觀點":9956,"省會":9957,"神經":9958,"繼位":9959,"羅德":9960,"藉由":9961,"西歐":9962,"迫使":9963,"首領":9964,"1959年":9965,"1970年":9966,"董事會":9967,"常務委員會":9968,"3000":9969,"人才":9970,"個體":9971,"半導體":9972,"哪位":9973,"大廈":9974,"大軍":9975,"宣告":9976,"慕容":9977,"慶祝":9978,"昆明":9979,"明代":9980,"曾國":9981,"曾於":9982,"有一個":9983,"木衛":9984,"的後":9985,"的代表":9986,"科索":9987,"絕大多數":9988,"街道":9989,"貓熊":9990,"近年":9991,"都被":9992,"首長":9993,"光譜":9994,"南朝":9995,"南非":9996,"岩石":9997,"所大學":9998,"暴動":9999,"武力":10000,"水的":10001,"洛克":10002,"用途":10003,"百濟":10004,"直轄市":10005,"編輯":10006,"英雄":10007,"言論":10008,"較低":10009,"都城":10010,"金日":10011,"13日":10012,"歐洲的":10013,"1964年":10014,"存在的":10015,"阿拉伯語":10016,"另一個是":10017,"科索沃":10018,"二次":10019,"加哥":10020,"吉林":10021,"宣戰":10022,"手中":10023,"改稱":10024,"攻佔":10025,"曼徹斯特":10026,"歷代":10027,"的情況":10028,"芝加哥":10029,"試驗":10030,"道奇":10031,"風險":10032,"現代化":10033,"一直到":10034,"大部分的":10035,"多倫多":10036,"釣魚臺":10037,"一半":10038,"了許多":10039,"便是":10040,"壟斷":10041,"大部份":10042,"專家":10043,"布斯":10044,"日益":10045,"時任":10046,"染色":10047,"涵蓋":10048,"漢武帝":10049,"王室":10050,"血液":10051,"視爲":10052,"轉向":10053,"選民":10054,"院校":10055,"香港大學":10056,"分別是":10057,"意識形態":10058,"法蘭西":10059,"三零":10060,"世襲":10061,"亦是":10062,"創始":10063,"升格":10064,"參考":10065,"參謀":10066,"妻子":10067,"始終":10068,"帶來的":10069,"得知":10070,"感到":10071,"成績":10072,"棒球":10073,"蒙特":10074,"賽季":10075,"超級":10076,"趨勢":10077,"較大的":10078,"通用":10079,"電阻":10080,"1917年":10081,"1988年":10082,"1985年":10083,"1933年":10084,"基金會":10085,"二零世紀":10086,"凡爾賽":10087,"NA":10088,"三省":10089,"上有":10090,"五十":10091,"來到":10092,"出發":10093,"女王":10094,"本質":10095,"氣象":10096,"注重":10097,"為中國":10098,"股東":10099,"被稱作":10100,"足總":10101,"較少":10102,"鄂圖曼":10103,"1912年":10104,"世界各地":10105,"希臘語":10106,"國內生產總值":10107,"338":10108,"代理":10109,"全書":10110,"函數":10111,"和中國":10112,"在他":10113,"大力":10114,"審查":10115,"布拉":10116,"抗戰":10117,"指示":10118,"的形式":10119,"空中":10120,"進而":10121,"閩南":10122,"1937年":10123,"1927年":10124,"語言的":10125,"1944年":10126,"1922年":10127,"le":10128,"之處":10129,"僅有":10130,"儒家":10131,"劃歸":10132,"大英":10133,"大城市":10134,"安德":10135,"引擎":10136,"次年":10137,"比利":10138,"特點":10139,"示威":10140,"等的":10141,"軍政":10142,"江蘇省":10143,"一支":10144,"介紹":10145,"公眾":10146,"團結":10147,"在臺灣":10148,"對方":10149,"局勢":10150,"強制":10151,"手機":10152,"打敗":10153,"日治":10154,"景觀":10155,"會上":10156,"架構":10157,"生殖":10158,"的反":10159,"確保":10160,"股票":10161,"自此":10162,"自轉":10163,"荊州":10164,"超越":10165,"轉化":10166,"那麼":10167,"科學技術":10168,"1973年":10169,"000人":10170,"廣東省":10171,"都會區":10172,"阿森納":10173,"人對":10174,"保加":10175,"創新":10176,"女子":10177,"威尼斯":10178,"對立":10179,"強的":10180,"後金":10181,"戰勝":10182,"找到":10183,"星期":10184,"湖泊":10185,"狄拉克":10186,"秩序":10187,"考察":10188,"華盛":10189,"衰落":10190,"重的":10191,"1928年":10192,"哪一位":10193,"問題的":10194,"軍事委員會":10195,"程度上":10196,"無政府主義":10197,"保加利亞":10198,"主體":10199,"二氧化":10200,"五大":10201,"全省":10202,"四國":10203,"孫中山":10204,"廣告":10205,"指定":10206,"新生":10207,"方程式":10208,"燃燒":10209,"營養":10210,"科舉":10211,"秘書":10212,"衛隊":10213,"達爾":10214,"都柏林":10215,"院長":10216,"運動員":10217,"代表團":10218,"1975年":10219,"1969年":10220,"交通大學":10221,"聖誕節":10222,"之初":10223,"人是":10224,"地圖":10225,"如今":10226,"後來的":10227,"新羅":10228,"東南部":10229,"河谷":10230,"流通":10231,"百姓":10232,"的領導":10233,"的傳統":10234,"第幾":10235,"繁殖":10236,"處的":10237,"諸侯":10238,"起源於":10239,"邱吉爾":10240,"顧問":10241,"1932年":10242,"行政區劃":10243,"豐富的":10244,"諸葛亮":10245,"華盛頓":10246,"丹麥":10247,"克拉":10248,"十五":10249,"另有":10250,"咸豐":10251,"在那":10252,"奪得":10253,"島和":10254,"工藝":10255,"戰事":10256,"摧毀":10257,"是位於":10258,"曹魏":10259,"有什麼":10260,"法規":10261,"當代":10262,"私有":10263,"辦法":10264,"450":10265,"廣泛的":10266,"哥倫比亞大學":10267,"約瑟夫":10268,"加州":10269,"占城":10270,"品牌":10271,"在一起":10272,"奧古斯":10273,"宋代":10274,"成果":10275,"教的":10276,"殺死":10277,"法軍":10278,"漁業":10279,"聞名":10280,"血管":10281,"評價":10282,"遭受":10283,"哪一條":10284,"世紀時":10285,"341":10286,"的大部分":10287,"1921年":10288,"長崎縣":10289,"神聖羅馬帝國":10290,"金日成":10291,"℃，":10292,"」；":10293,"促使":10294,"具備":10295,"多爾":10296,"失業":10297,"幹線":10298,"教科":10299,"新政":10300,"施行":10301,"有很多":10302,"朱棣":10303,"狹義":10304,"相應":10305,"看法":10306,"致力":10307,"貪污":10308,"通道":10309,"附屬":10310,"電信":10311,"1981年":10312,"331":10313,"332":10314,"相同的":10315,"臺北市":10316,"339":10317,"is":10318,"介石":10319,"十三":10320,"在北京":10321,"大大":10322,"改制":10323,"歲的":10324,"爾的":10325,"經費":10326,"線上":10327,"而後":10328,"萬噸":10329,"費用":10330,"追求":10331,"這項":10332,"開創":10333,"體字":10334,"革命軍":10335,"造成了":10336,"加勒比":10337,"中大":10338,"事物":10339,"克羅":10340,"北平":10341,"和社會":10342,"城的":10343,"就已經":10344,"指數":10345,"支流":10346,"水利":10347,"洪武":10348,"物資":10349,"蔣介石":10350,"表決":10351,"被認爲":10352,"西北部":10353,"除此":10354,"開始在":10355,"使用者":10356,"南北朝":10357,"一千":10358,"一座":10359,"世祖":10360,"並無":10361,"像是":10362,"全境":10363,"割據":10364,"始於":10365,"市政":10366,"干涉":10367,"感覺":10368,"探險":10369,"推進":10370,"樂團":10371,"派出":10372,"源地":10373,"特烈":10374,"理性":10375,"登記":10376,"的出現":10377,"相鄰":10378,"相對於":10379,"辭職":10380,"遷徙":10381,"選票":10382,"邊緣":10383,"高宗":10384,"中國政府":10385,"349":10386,"進行的":10387,"460":10388,"480":10389,"導致了":10390,"降水量":10391,"位的":10392,"加速":10393,"叫做":10394,"各級":10395,"向東":10396,"品種":10397,"在中":10398,"希拉":10399,"年齡":10400,"德的":10401,"所需":10402,"放射":10403,"新興":10404,"暫時":10405,"歐美":10406,"法官":10407,"法定":10408,"法語":10409,"的民族":10410,"給了":10411,"過於":10412,"鄉鎮":10413,"開設":10414,"電池":10415,"香港特別行政區":10416,"1963年":10417,"工業化":10418,"民主主義":10419,"333":10420,"取得了":10421,"發表了":10422,"無線電":10423,"賽德娜":10424,"曾國藩":10425,"之路":10426,"做出":10427,"冷戰":10428,"圍繞":10429,"強大的":10430,"旅行":10431,"晤士":10432,"正統":10433,"波音":10434,"泰晤士":10435,"索馬利亞":10436,"結婚":10437,"總體":10438,"腓特烈":10439,"與什麼":10440,"興盛":10441,"若干":10442,"進口":10443,"359":10444,"365":10445,"歐洲國家":10446,"1895年":10447,"今天的":10448,"奧斯卡":10449,"一方面":10450,"中葉":10451,"也因此":10452,"出售":10453,"參議員":10454,"啟用":10455,"團隊":10456,"嬰兒":10457,"學士":10458,"封鎖":10459,"支配":10460,"旅客":10461,"是為了":10462,"沖繩":10463,"甘蔗":10464,"的不":10465,"的名字":10466,"粵語":10467,"選手":10468,"347":10469,"中央政府":10470,"體育場":10471,"一人":10472,"光的":10473,"島上的":10474,"建州":10475,"應當":10476,"日後":10477,"有幾":10478,"歧視":10479,"火箭":10480,"牙利":10481,"理由":10482,"百科":10483,"碼頭":10484,"車道":10485,"進駐":10486,"預計":10487,"哪一個城市":10488,"人口普查":10489,"中央委員會":10490,"的大型":10491,"學校的":10492,"1905年":10493,"地球上":10494,"青森縣":10495,"一職":10496,"以東":10497,"俗稱":10498,"充分":10499,"出身":10500,"原先":10501,"含量":10502,"在哪裡":10503,"外來":10504,"太祖":10505,"極大":10506,"沙皇":10507,"為其":10508,"現有":10509,"白人":10510,"的時代":10511,"的建築":10512,"相連":10513,"詳細":10514,"通商":10515,"連任":10516,"1911年":10517,"343":10518,"自治州":10519,"倫敦市":10520,"新竹縣":10521,"之內":10522,"來看":10523,"前期":10524,"十大":10525,"吳語":10526,"國籍":10527,"安石":10528,"摩爾":10529,"數十":10530,"族人":10531,"會合":10532,"東征":10533,"水稻":10534,"獲取":10535,"男子":10536,"科幻":10537,"紐澤西":10538,"維多":10539,"邊的":10540,"預測":10541,"體現":10542,"386":10543,"1965年":10544,"全美":10545,"公安":10546,"則為":10547,"前身":10548,"動的":10549,"及其他":10550,"器的":10551,"在他的":10552,"教區":10553,"教師":10554,"更名為":10555,"榮譽":10556,"死於":10557,"王安石":10558,"瓦爾":10559,"的自由":10560,"研發":10561,"科大":10562,"紅外線":10563,"羅伯特":10564,"航線":10565,"菩薩":10566,"設於":10567,"註冊":10568,"軍人":10569,"一個是":10570,"世界遺產":10571,"可以被":10572,"人口的":10573,"352":10574,"1931年":10575,"金正恩":10576,"一場":10577,"不受":10578,"主題":10579,"假設":10580,"公視":10581,"其頓":10582,"匈牙利":10583,"安徽":10584,"小型":10585,"攻陷":10586,"星等":10587,"河的":10588,"的法律":10589,"絲綢":10590,"緊急":10591,"質疑":10592,"遷往":10593,"隊伍":10594,"20年代":10595,"日本人":10596,"345":10597,"1983年":10598,"1971年":10599,"1976年":10600,"1962年":10601,"臺中市":10602,"所謂的":10603,"季風氣候":10604,"320":10605,"並與":10606,"之名":10607,"克的":10608,"學問":10609,"明尼亞":10610,"昭和":10611,"沿用":10612,"泰國":10613,"火車":10614,"畫家":10615,"的所有":10616,"的宗教":10617,"群體":10618,"花園":10619,"證券":10620,"雅典":10621,"體內":10622,"1919年":10623,"354":10624,"發表的":10625,"太空站":10626,"動力學":10627,"明尼亞波":10628,"上市":10629,"值得":10630,"八年":10631,"四十":10632,"城邦":10633,"多元":10634,"大帝":10635,"完工":10636,"擔心":10637,"改進":10638,"明清":10639,"時常":10640,"森堡":10641,"為大":10642,"真實":10643,"短暫":10644,"種子":10645,"等於":10646,"選區":10647,"還包括":10648,"限於":10649,"馬其頓":10650,"中國人":10651,"470":10652,"公里的":10653,"反對派":10654,"嚴重的":10655,"分布在":10656,"伊利":10657,"但卻":10658,"品質":10659,"土壤":10660,"在何處":10661,"外蒙古":10662,"宰相":10663,"巴尼亞":10664,"席位":10665,"東正":10666,"檢查":10667,"的內容":10668,"礦產":10669,"繼任":10670,"衰退":10671,"較多":10672,"辛巴":10673,"還要":10674,"美國國家":10675,"領域的":10676,"上議院":10677,"主管":10678,"九州":10679,"又有":10680,"喪失":10681,"國外":10682,"大使":10683,"大都":10684,"就業":10685,"左翼":10686,"所管轄":10687,"方針":10688,"江戶":10689,"波長":10690,"為甚麼":10691,"版圖":10692,"疆域":10693,"稱帝":10694,"範疇":10695,"維吉爾":10696,"萬美元":10697,"資產":10698,"資產階級":10699,"這句話":10700,"通往":10701,"遷都":10702,"邊防":10703,"非法":10704,"體積":10705,"344":10706,"351":10707,"353":10708,"363":10709,"法國大革命":10710,"490":10711,"統治的":10712,"31日":10713,"成功的":10714,"保守派":10715,"同盟國":10716,"希拉蕊":10717,"之時":10718,"人與":10719,"傳輸":10720,"出於":10721,"刺激":10722,"博覽":10723,"反而":10724,"合約":10725,"大道":10726,"它是":10727,"布里亞":10728,"微軟":10729,"惡化":10730,"指責":10731,"排列":10732,"撞擊":10733,"日語":10734,"是來自":10735,"淘汰":10736,"深入":10737,"甘肅":10738,"的過程":10739,"的位置":10740,"的說法":10741,"穩定的":10742,"緊密":10743,"薩斯":10744,"處死":10745,"衝擊":10746,"被發現":10747,"詩經":10748,"負擔":10749,"軍在":10750,"逮捕":10751,"隸屬":10752,"飛彈":10753,"通過了":10754,"現代主義":10755,"保定":10756,"偉大的":10757,"則在":10758,"十月":10759,"史特拉":10760,"增強":10761,"巴馬":10762,"形勢":10763,"性和":10764,"想法":10765,"操作":10766,"景點":10767,"某種":10768,"校友":10769,"海域":10770,"為哪個":10771,"珍珠":10772,"現任":10773,"登上":10774,"藍色":10775,"行省":10776,"西域":10777,"記憶":10778,"軍閥":10779,"輸入":10780,"錦標":10781,"馬士":10782,"文化大革命":10783,"355":10784,"361":10785,"366":10786,"學院的":10787,"生產的":10788,"的原子":10789,"理事會":10790,"辛巴威":10791,"一開始":10792,"不但":10793,"中立":10794,"也沒有":10795,"全民":10796,"原來":10797,"參賽":10798,"各項":10799,"哈拉":10800,"大洋":10801,"宮殿":10802,"尋找":10803,"怎麼":10804,"情報":10805,"指標":10806,"攻克":10807,"教皇":10808,"有兩個":10809,"漢書":10810,"產物":10811,"的北":10812,"的作用":10813,"移居":10814,"籌備":10815,"職責":10816,"被殺":10817,"西伯利亞":10818,"遊行":10819,"關島":10820,"高中":10821,"高壓":10822,"以及哪一個":10823,"以及哪個":10824,"英國人":10825,"發展出":10826,"阿爾巴尼亞":10827,"與此同時":10828,"om":10829,"中英":10830,"也開始":10831,"兩位":10832,"千人":10833,"可分為":10834,"嘉義":10835,"孔子":10836,"學派":10837,"日照":10838,"案件":10839,"法庭":10840,"的南":10841,"的生活":10842,"皇室":10843,"維新":10844,"過世":10845,"高校":10846,"10萬":10847,"國家元首":10848,"可以用":10849,"他們在":10850,"1904年":10851,"完整的":10852,"……":10853,"一代":10854,"他還":10855,"代替":10856,"同志":10857,"和文化":10858,"喜劇":10859,"在內":10860,"在該":10861,"孩子":10862,"密集":10863,"戰艦":10864,"據點":10865,"數目":10866,"最主要的":10867,"有一些":10868,"歸類":10869,"特區":10870,"的話":10871,"秘密":10872,"蘇利":10873,"路軍":10874,"道教":10875,"阿斯":10876,"食用":10877,"鳥類":10878,"經濟的":10879,"342":10880,"人口為":10881,"其中一個":10882,"電視臺":10883,"聯盟的":10884,"地球的":10885,"包含了":10886,"一同":10887,"和政治":10888,"工學院":10889,"平安":10890,"廣府":10891,"拉特":10892,"持有":10893,"最有":10894,"演講":10895,"濃度":10896,"發源於":10897,"總會":10898,"辛亥":10899,"郊區":10900,"1957年":10901,"第二個":10902,"控制了":10903,"的前身":10904,"於哪一年時":10905,"史特拉斯堡":10906,"2個":10907,"上游":10908,"周期":10909,"四季":10910,"愛國":10911,"收費":10912,"日報":10913,"是被":10914,"晶體":10915,"杜拜":10916,"治理":10917,"的技術":10918,"的存在":10919,"稅收":10920,"紫陽":10921,"經理":10922,"自古":10923,"西南部":10924,"諸多":10925,"身分":10926,"電報":10927,"馬丁":10928,"魚類":10929,"主要由":10930,"代表的":10931,"成爲了":10932,"戰鬥機":10933,"福岡市":10934,"木衛三":10935,"bo":10936,"之子":10937,"之際":10938,"交戰":10939,"但其":10940,"全年":10941,"公務":10942,"古蹟":10943,"因其":10944,"在印度":10945,"城牆":10946,"審議":10947,"差別":10948,"星系":10949,"是香港":10950,"書法":10951,"核糖":10952,"溝通":10953,"的聖":10954,"硫酸":10955,"葉門":10956,"解析":10957,"這兩個":10958,"零售":10959,"青島":10960,"頭銜":10961,"國民革命軍":10962,"控制的":10963,"1898年":10964,"分別為":10965,"舉辦的":10966,"普通話":10967,"高等教育":10968,"不得不":10969,"烏拉圭":10970,"辛亥革命":10971,"%；":10972,"下了":10973,"介入":10974,"利維夫":10975,"四世":10976,"在中國大陸":10977,"場合":10978,"官話":10979,"尼黑":10980,"幾月":10981,"敵人":10982,"海水":10983,"生成":10984,"的意思":10985,"盛行":10986,"盟軍":10987,"私立":10988,"結盟":10989,"義和":10990,"職員":10991,"西德":10992,"走廊":10993,"轉換":10994,"進化":10995,"醫生":10996,"長子":10997,"閱讀":10998,"1914年":10999,"日本政府":11000,"356":11001,"358":11002,"中華人民共和國政府":11003,"自然科學":11004,"的地理":11005,"什麼時候開始":11006,"武裝力量":11007,"3個":11008,"330":11009,"900":11010,"以便":11011,"元帥":11012,"分區":11013,"卑斯":11014,"史記":11015,"命名的":11016,"啓超":11017,"在18":11018,"崇拜":11019,"干預":11020,"慕尼黑":11021,"整合":11022,"海灣":11023,"發音":11024,"的最高":11025,"的名稱":11026,"緊張":11027,"總長":11028,"腐敗":11029,"良好":11030,"赤道":11031,"都不":11032,"陳誠":11033,"電氣":11034,"首任":11035,"什麼的":11036,"其中包括":11037,"正式成立":11038,"增加了":11039,"南京大學":11040,"王朝的":11041,"咖啡因":11042,"戰役中":11043,"巴拿馬運河":11044,"安息帝國":11045,"布里亞特":11046,"318":11047,"BC":11048,"人認為":11049,"傳遞":11050,"公頃":11051,"典型的":11052,"受歡迎":11053,"吐蕃":11054,"大於":11055,"委任":11056,"左派":11057,"巴登":11058,"市鎮":11059,"往來":11060,"摩擦":11061,"撤離":11062,"是爲":11063,"是根據":11064,"最古老的":11065,"梁啓超":11066,"河口":11067,"法西斯":11068,"流入":11069,"海戰":11070,"無產階級":11071,"界的":11072,"突然":11073,"衍生":11074,"裡的":11075,"解體":11076,"第一部":11077,"346":11078,"362":11079,"371":11080,"373":11081,"太空飛行":11082,"原因是":11083,"拉丁文":11084,"以外的":11085,"廣義相對論":11086,"317":11087,"DNA":11088,"七月":11089,"五世":11090,"五代":11091,"傷亡":11092,"分立":11093,"卡特":11094,"呼籲":11095,"地產":11096,"大夫":11097,"山的":11098,"很難":11099,"更大的":11100,"木星":11101,"極為":11102,"海的":11103,"游擊":11104,"為哪一種":11105,"瓦解":11106,"男女":11107,"趙紫陽":11108,"跆拳":11109,"軍區":11110,"關閉":11111,"隨之":11112,"順利":11113,"騎兵":11114,"高畫質":11115,"1938年":11116,"臺灣省":11117,"因此在":11118,"1967年":11119,"理論的":11120,"這一時期":11121,"猶太教":11122,"阿爾卑斯":11123,"鴉片戰爭":11124,"元世祖":11125,"其子":11126,"判斷":11127,"別稱":11128,"又稱為":11129,"各省":11130,"和北":11131,"商店":11132,"多年的":11133,"契爾":11134,"學府":11135,"對稱":11136,"影像":11137,"擴建":11138,"替代":11139,"會和":11140,"杜林":11141,"機槍":11142,"的制度":11143,"的現象":11144,"的變化":11145,"科研":11146,"紀元":11147,"統帥":11148,"脊椎":11149,"與美國":11150,"諮詢":11151,"警務":11152,"質子":11153,"車廂":11154,"金曲":11155,"金磚":11156,"鐵道":11157,"颱風":11158,"哪一國":11159,"開始了":11160,"社會科學":11161,"1943年":11162,"580":11163,"組成部分":11164,"通常是":11165,"1896年":11166,"廣州市":11167,"藝術家":11168,"聯邦政府":11169,"旅遊業":11170,"發明了":11171,"卡爾梅克":11172,"多樣性":11173,"馬士革":11174,"as":11175,"一部":11176,"亞太":11177,"內蒙古":11178,"兩條":11179,"合理":11180,"名單":11181,"國道":11182,"在南":11183,"在新":11184,"在國際":11185,"巴赫":11186,"強大":11187,"成年":11188,"托巴":11189,"改名":11190,"有三":11191,"歐亞":11192,"溫泉":11193,"環繞":11194,"由誰":11195,"的鐵路":11196,"監察":11197,"神星":11198,"處決":11199,"被譽":11200,"規律":11201,"進軍":11202,"長頸":11203,"1934年":11204,"357":11205,"387":11206,"372":11207,"374":11208,"391":11209,"大陸性":11210,"680":11211,"出版的":11212,"天然氣":11213,"323":11214,"80年代":11215,"ac":11216,"中全":11217,"九月":11218,"亞熱帶":11219,"修訂":11220,"傳送":11221,"元代":11222,"充滿":11223,"公社":11224,"兵制":11225,"冰洋":11226,"千葉":11227,"向南":11228,"和中":11229,"如同":11230,"專制":11231,"工農":11232,"德軍":11233,"承擔":11234,"撰寫":11235,"攻入":11236,"文帝":11237,"民意":11238,"活塞":11239,"王位":11240,"王國的":11241,"留在":11242,"的數量":11243,"的比例":11244,"縣市":11245,"與中國":11246,"華東":11247,"諸如":11248,"輔音":11249,"開封":11250,"隋朝":11251,"青海":11252,"飲料":11253,"國家級":11254,"348":11255,"393":11256,"影響了":11257,"支持者":11258,"改革開放":11259,"植物的":11260,"國共內戰":11261,"324":11262,"一家":11263,"一定的":11264,"了一些":11265,"二月":11266,"壓縮":11267,"大埔":11268,"奧匈":11269,"少年":11270,"就讀":11271,"庫頁":11272,"從未":11273,"摩洛":11274,"文人":11275,"斯麥":11276,"歐元":11277,"母語":11278,"深遠":11279,"的內":11280,"的思想":11281,"祭祀":11282,"終身":11283,"貧窮":11284,"起初":11285,"輸出":11286,"過度":11287,"違反":11288,"1900年":11289,"美國人":11290,"364":11291,"368":11292,"382":11293,"之一的":11294,"行政機關":11295,"同時也是":11296,"民族主義":11297,"是由哪一個":11298,"是誰的":11299,"太平天":11300,"演唱會":11301,"除此之外":11302,"摩洛哥":11303,"311":11304,"90年代":11305,"下設":11306,"之上":11307,"予以":11308,"傷害":11309,"克萊":11310,"分解":11311,"利潤":11312,"加利":11313,"動員":11314,"各州":11315,"各類":11316,"回歸":11317,"均有":11318,"導演":11319,"年度":11320,"托馬斯":11321,"整理":11322,"末年":11323,"比重":11324,"測試":11325,"牧師":11326,"玻璃":11327,"的能量":11328,"立方":11329,"第九":11330,"西區":11331,"議席":11332,"財務":11333,"起了":11334,"路段":11335,"通行":11336,"麵包":11337,"使用了":11338,"367":11339,"384":11340,"385":11341,"電視節目":11342,"加入了":11343,"它們的":11344,"無政府主義者":11345,"股份有限公司":11346,"多爾袞":11347,"明尼亞波利斯":11348,"4個":11349,"一書":11350,"並有":11351,"克里斯":11352,"否決":11353,"回國":11354,"在上海":11355,"多德":11356,"太湖":11357,"定期":11358,"強度":11359,"捷運":11360,"日耳":11361,"曾被":11362,"會產生":11363,"有多":11364,"朋友":11365,"柴契爾":11366,"條款":11367,"橢圓":11368,"正是":11369,"流量":11370,"瑪麗":11371,"用作":11372,"的歐洲":11373,"直徑":11374,"術語":11375,"補充":11376,"遊牧":11377,"運營":11378,"遠東":11379,"金朝":11380,"防衛":11381,"頒發":11382,"馬鳴":11383,"黨魁":11384,"15世紀":11385,"人民軍":11386,"377":11387,"建築師":11388,"朝鮮族":11389,"恆星的":11390,"耶穌會":11391,"牛津大學":11392,"全國人大常委會":11393,"曼尼托巴":11394,"326":11395,"es":11396,"不如":11397,"不論":11398,"以西":11399,"僅僅":11400,"再加上":11401,"則由":11402,"北緯":11403,"名列":11404,"大乘":11405,"尊重":11406,"已被":11407,"所得":11408,"撒冷":11409,"擺脫":11410,"改編":11411,"最具":11412,"武昌":11413,"清楚":11414,"米的":11415,"總共":11416,"耶路":11417,"自主":11418,"自我":11419,"複製":11420,"過的":11421,"鄉村":11422,"間接":11423,"黑色":11424,"1930年":11425,"375":11426,"409":11427,"不同於":11428,"傳統上":11429,"學者認為":11430,"廣播電台":11431,"改變了":11432,"明顯的":11433,"致力於":11434,"維多利亞":11435,"跆拳道":11436,"長頸鹿":11437,"日耳曼":11438,"耶路撒冷":11439,"下來的":11440,"交給":11441,"僱傭":11442,"刺史":11443,"友好":11444,"可是":11445,"大馬士革":11446,"律師":11447,"收藏":11448,"更新":11449,"有利":11450,"洛伐":11451,"液體":11452,"游泳":11453,"牧業":11454,"的開":11455,"的使用":11456,"米特":11457,"終結":11458,"罷工":11459,"這也是":11460,"里士":11461,"長老":11462,"障礙":11463,"生物體":11464,"設立了":11465,"服務業":11466,"在19世紀":11467,"主權移交":11468,"真正的":11469,"佛羅里達":11470,"el":11471,"也可":11472,"乾旱":11473,"則以":11474,"前者":11475,"北上":11476,"印象":11477,"可樂":11478,"廢止":11479,"所組成":11480,"收錄":11481,"東鐵":11482,"深圳":11483,"清政府":11484,"火車站":11485,"環保":11486,"用以":11487,"的不同":11488,"的標準":11489,"管治":11490,"而來的":11491,"華沙":11492,"蜀漢":11493,"西漢":11494,"西里":11495,"足利":11496,"迫害":11497,"進展":11498,"醫學院":11499,"預言":11500,"首腦":11501,"馬祖":11502,"城市之一":11503,"研究生":11504,"388":11505,"404":11506,"407":11507,"1942年":11508,"存在於":11509,"君主制":11510,"最初的":11511,"三角洲":11512,"巴爾幹半島":11513,"二氧化碳":11514,"321":11515,"倫斯":11516,"兩院":11517,"六十":11518,"古巴":11519,"圖案":11520,"大橋":11521,"安東":11522,"實體":11523,"拼音":11524,"接著":11525,"收集":11526,"改良":11527,"攻占":11528,"曆法":11529,"生素":11530,"的行政":11531,"節度":11532,"節日":11533,"結論":11534,"總裁":11535,"蘋果":11536,"解除":11537,"該地區":11538,"高溫":11539,"389":11540,"401":11541,"最後一":11542,"7月1日":11543,"大部分地區":11544,"指的是誰":11545,"神戶市":11546,"東京都":11547,"去世後":11548,"客家人":11549,"第五次":11550,"簡單的":11551,"義務教育":11552,"意味著":11553,"比利時":11554,"住在":11555,"分開":11556,"和哪一":11557,"在德國":11558,"基輔":11559,"居於":11560,"布朗":11561,"微積分":11562,"托勒":11563,"掌控":11564,"播放":11565,"旗下":11566,"服役":11567,"期刊":11568,"期的":11569,"格拉":11570,"水庫":11571,"當然":11572,"的同時":11573,"的設計":11574,"認定":11575,"說是":11576,"諾夫":11577,"邏輯":11578,"那個":11579,"長時間":11580,"陽光":11581,"霍布斯":11582,"駐軍":11583,"文化遺產":11584,"的人數":11585,"的原則":11586,"東部的":11587,"君主立憲":11588,"染色體":11589,"327":11590,"二人":11591,"侵犯":11592,"修築":11593,"俾斯麥":11594,"內亞":11595,"公平":11596,"出土":11597,"分散":11598,"劍橋":11599,"可達":11600,"向北":11601,"和南":11602,"和美國":11603,"在前":11604,"在全國":11605,"坦克":11606,"場地":11607,"大運河":11608,"天線":11609,"宮廷":11610,"宿舍":11611,"富有":11612,"工商業":11613,"延安":11614,"弗雷":11615,"攻勢":11616,"最著名的":11617,"構成的":11618,"生育":11619,"發言":11620,"的非":11621,"相望":11622,"羅拉":11623,"而成的":11624,"耕地":11625,"職能":11626,"自民黨":11627,"艦艇":11628,"良好的":11629,"西晉":11630,"這類":11631,"阿根":11632,"頒獎":11633,"黑人":11634,"部分地區":11635,"406":11636,"1977年":11637,"皇帝的":11638,"阿拉伯人":11639,"生態系統":11640,"同性婚姻":11641,"洛伐克":11642,"仍是":11643,"但也":11644,"俄語":11645,"做為":11646,"內政":11647,"內有":11648,"即將":11649,"口號":11650,"吉思":11651,"在政治":11652,"奧多":11653,"崩潰":11654,"希特":11655,"強迫":11656,"彗星":11657,"後人":11658,"德華":11659,"打破":11660,"支那":11661,"書面":11662,"會將":11663,"東印度":11664,"格勒":11665,"河川":11666,"港鐵":11667,"演出":11668,"王星":11669,"等國":11670,"綱領":11671,"網頁":11672,"編號":11673,"縣城":11674,"縣級":11675,"總書記":11676,"群眾":11677,"船隻":11678,"藩鎮":11679,"許昌":11680,"變法":11681,"辦事":11682,"這時":11683,"隧道":11684,"集合":11685,"面向":11686,"383":11687,"402":11688,"403":11689,"396":11690,"羅馬人":11691,"自由貿易":11692,"根據地":11693,"現代的":11694,"受到了":11695,"細胞核":11696,"1906年":11697,"基礎上":11698,"農業生產":11699,"形式的":11700,"開發區":11701,"拉丁字母":11702,"董事長":11703,"托勒密":11704,"3萬":11705,"JR":11706,"不願":11707,"中以":11708,"以往":11709,"以為":11710,"但因":11711,"佔據":11712,"做法":11713,"卡斯":11714,"和水":11715,"在這個":11716,"型態":11717,"專政":11718,"嶺南":11719,"常被":11720,"幾次":11721,"戰術":11722,"是韓國":11723,"時有":11724,"林彪":11725,"氧氣":11726,"水準":11727,"波動":11728,"流亡":11729,"火星":11730,"的熱":11731,"看作":11732,"維爾":11733,"肯定":11734,"該地":11735,"認知":11736,"起點":11737,"這裏":11738,"連串":11739,"選為":11740,"錫安":11741,"青銅":11742,"領先":11743,"馬爾":11744,"鮮卑":11745,"1936年":11746,"394":11747,"398":11748,"設計的":11749,"製造業":11750,"南極洲":11751,"阿根廷":11752,"it":11753,"上是":11754,"了對":11755,"交互":11756,"人都":11757,"以其":11758,"典型":11759,"列強":11760,"南端":11761,"古城":11762,"在哪":11763,"威斯":11764,"富汗":11765,"就可以":11766,"川縣":11767,"年號":11768,"幾內亞":11769,"成吉思":11770,"收縮":11771,"是哪一種":11772,"決心":11773,"派別":11774,"為多少":11775,"磁場":11776,"脂肪":11777,"衆多":11778,"評估":11779,"議長":11780,"輔助":11781,"隊的":11782,"隔年":11783,"高層":11784,"文化和":11785,"大陸的":11786,"台灣的":11787,"爆發後":11788,"太平軍":11789,"出版社":11790,"立法院":11791,"高速鐵路":11792,"類似的":11793,"繼承人":11794,"布魯克":11795,"的作者是誰":11796,"是哪國人":11797,"一天":11798,"上下":11799,"不變":11800,"五零":11801,"亞塞":11802,"他認為":11803,"以來的":11804,"作業":11805,"全長":11806,"半年":11807,"占據":11808,"又在":11809,"又被稱為":11810,"吉米":11811,"地主":11812,"地貌":11813,"埃西亞":11814,"壽命":11815,"奪回":11816,"專員":11817,"展示":11818,"工資":11819,"形的":11820,"想要":11821,"戶籍":11822,"推舉":11823,"文革":11824,"是全國":11825,"格局":11826,"每一個":11827,"海地":11828,"物流":11829,"犯罪":11830,"的物質":11831,"礦物":11832,"章程":11833,"終止":11834,"繁忙":11835,"習近":11836,"聖地":11837,"腳踏":11838,"舞台":11839,"英里":11840,"贊成":11841,"還原":11842,"還在":11843,"阿富汗":11844,"高血壓":11845,"378":11846,"379":11847,"歷史上的":11848,"399":11849,"年的時候":11850,"000名":11851,"西部的":11852,"克羅埃西亞":11853,"錦標賽":11854,"蘇利南":11855,"319":11856,"610":11857,"一生":11858,"不及":11859,"中書":11860,"便利":11861,"保險":11862,"冰河":11863,"參選":11864,"國歌":11865,"城堡":11866,"增設":11867,"大區":11868,"女兒":11869,"室內":11870,"巡撫":11871,"帶動":11872,"廣大":11873,"數學家":11874,"方的":11875,"會戰":11876,"步兵":11877,"水果":11878,"災難":11879,"無人":11880,"的教":11881,"的戰爭":11882,"的環境":11883,"的首都":11884,"而這":11885,"覺得":11886,"討伐":11887,"送到":11888,"通貨":11889,"錫克":11890,"騎士":11891,"1935年":11892,"主義和":11893,"408":11894,"最高法院":11895,"西方國家":11896,"擊敗了":11897,"創立了":11898,"外國人":11899,"浙江省":11900,"成吉思汗":11901,"習近平":11902,"不利":11903,"之父":11904,"傳媒":11905,"初年":11906,"匈奴":11907,"因斯":11908,"園林":11909,"多米":11910,"委託":11911,"已知":11912,"序列":11913,"延長":11914,"意圖":11915,"房屋":11916,"數百":11917,"有何":11918,"有可能":11919,"毗鄰":11920,"流放":11921,"為中心":11922,"煤炭":11923,"界線":11924,"發球":11925,"的英國":11926,"純粹":11927,"維京":11928,"蘇州":11929,"見於":11930,"遭遇":11931,"釜山":11932,"龐大":11933,"1929年":11934,"405":11935,"哪一年開始":11936,"印度尼西亞":11937,"在哪一年被":11938,"1月1日":11939,"北海道":11940,"一點":11941,"交匯":11942,"但他":11943,"使者":11944,"公爵":11945,"公車":11946,"共享":11947,"冬天":11948,"冰島":11949,"分割":11950,"分泌":11951,"原有的":11952,"和西":11953,"報道":11954,"學系":11955,"尼爾":11956,"展覽":11957,"常用":11958,"平台":11959,"得主":11960,"情緒":11961,"投手":11962,"拜然":11963,"推薦":11964,"支柱":11965,"時被":11966,"有權":11967,"梵蒂":11968,"此舉":11969,"每日":11970,"民政":11971,"民進":11972,"流派":11973,"流經":11974,"深刻":11975,"渤海":11976,"濮陽":11977,"特蘭":11978,"的光":11979,"的金":11980,"的要求":11981,"緯度":11982,"習俗":11983,"職人員":11984,"華僑":11985,"貨物":11986,"部署":11987,"阿布":11988,"00萬":11989,"世紀初":11990,"社會黨":11991,"381":11992,"451":11993,"397":11994,"地方的":11995,"管理局":11996,"690":11997,"選舉產生":11998,"是誰的作品":11999,"北京大學":12000,"或者是":12001,"基因組":12002,"標誌著":12003,"可以追溯到":12004,"加勒比海":12005,"梵蒂岡":12006,"et":12007,"一套":12008,"人種":12009,"仍在":12010,"作曲":12011,"匯率":12012,"千島":12013,"向西":12014,"周年":12015,"四月":12016,"固體":12017,"城縣":12018,"埔寨":12019,"大國":12020,"大敗":12021,"大清":12022,"字的":12023,"寒冷":12024,"必然":12025,"戰亂":12026,"數次":12027,"東經":12028,"棉花":12029,"正月":12030,"注入":12031,"特權":12032,"生於":12033,"登基":12034,"的美":12035,"的速度":12036,"神奈":12037,"神宗":12038,"製品":12039,"造船":12040,"重組":12041,"鎌倉":12042,"集權":12043,"顯微":12044,"駕駛":12045,"1913年":12046,"研究的":12047,"369":12048,"印度洋":12049,"這個詞":12050,"一般認為":12051,"自然界":12052,"人類的":12053,"比賽中":12054,"華納公司":12055,"獨特的":12056,"腳踏車":12057,"329":12058,"ro":12059,"世俗":12060,"亞里士":12061,"介於":12062,"信任":12063,"做的":12064,"公會":12065,"北角":12066,"卡兒":12067,"參戰":12068,"同位":12069,"和經濟":12070,"坐落":12071,"弗里":12072,"彼此":12073,"接任":12074,"數個":12075,"柬埔寨":12076,"河道":12077,"漢江":12078,"牡丹":12079,"的上":12080,"知名的":12081,"禮儀":12082,"而有":12083,"與日本":12084,"視差":12085,"退休":12086,"這兩":12087,"這場":12088,"週年":12089,"關聯":12090,"首席":12091,"1925年":12092,"376":12093,"395":12094,"中央人民政府":12095,"時間內":12096,"1908年":12097,"平方米":12098,"公共運輸":12099,"奧斯陸":12100,"帶來了":12101,"安陽市":12102,"的基礎上":12103,"日治時期":12104,"box":12105,"70年代":12106,"BBC":12107,"一隻":12108,"人之":12109,"佔有":12110,"八月":12111,"副熱帶":12112,"在哪個":12113,"大家":12114,"大師":12115,"大概":12116,"學界":12117,"岳飛":12118,"巴拉":12119,"廉政":12120,"提案":12121,"攻下":12122,"昆蟲":12123,"最先":12124,"毫無":12125,"洛夫":12126,"派兵":12127,"清史":12128,"王菲":12129,"的組織":12130,"的科學":12131,"約國":12132,"與之":12133,"途中":12134,"還沒有":12135,"題材":12136,"馬利":12137,"開始出現":12138,"研究院":12139,"總統制":12140,"590":12141,"還有哪一":12142,"尼亞州":12143,"平均氣溫":12144,"勞動黨":12145,"電磁波":12146,"協商會議":12147,"教科文":12148,"脊椎動物":12149,"交互作用":12150,"亞塞拜然":12151,"也能":12152,"人力":12153,"令人":12154,"任內":12155,"例外":12156,"修復":12157,"分校":12158,"北美洲":12159,"南洋":12160,"又被":12161,"台北":12162,"地殼":12163,"多為":12164,"大衛":12165,"奠定了":12166,"奧委會":12167,"孤立":12168,"定都":12169,"常委":12170,"後被":12171,"戈爾":12172,"戰時":12173,"承諾":12174,"指控":12175,"改組":12176,"數值":12177,"是個":12178,"普林":12179,"朝貢":12180,"桃園":12181,"正面":12182,"比爾":12183,"水系":12184,"波爾":12185,"玄宗":12186,"產值":12187,"的哪一個":12188,"的面積":12189,"的生物":12190,"競選":12191,"笛卡兒":12192,"紹爾":12193,"緩慢":12194,"縣轄市":12195,"距今":12196,"遵守":12197,"里程":12198,"開採":12199,"電臺":12200,"預防":12201,"馬紹爾":12202,"高地":12203,"高爾":12204,"國家和":12205,"自由的":12206,"動物門":12207,"軍隊的":12208,"聯合國教科文":12209,"在這裡":12210,"經歷了":12211,"庫頁島":12212,"太平天國":12213,"322":12214,"丞相":12215,"中子":12216,"中旬":12217,"佔了":12218,"兩人":12219,"列爲":12220,"北約":12221,"原來的":12222,"同樣的":12223,"名勝":12224,"在世界":12225,"外部":12226,"大韓":12227,"學和":12228,"實質":12229,"常住":12230,"擁護":12231,"消耗":12232,"清末":12233,"演說":12234,"焦作":12235,"物品":12236,"百貨":12237,"的有":12238,"的運動":12239,"的局面":12240,"真核":12241,"秋季":12242,"稻米":12243,"競技":12244,"總署":12245,"織女":12246,"萬曆":12247,"號線":12248,"變革":12249,"起來的":12250,"轉型":12251,"逃亡":12252,"通知":12253,"國家公園":12254,"第一條":12255,"464":12256,"印度支那":12257,"委員會的":12258,"最高點":12259,"最後一個":12260,"細胞的":12261,"保護區":12262,"為主的":12263,"取代了":12264,"發明的":12265,"分布於":12266,"哺乳動物":12267,"公務員":12268,"一顆":12269,"三月":12270,"了中國":12271,"二八":12272,"亮度":12273,"他對":12274,"傳承":12275,"六甲":12276,"凝土":12277,"制定的":12278,"助手":12279,"及利亞":12280,"召集":12281,"名城":12282,"在廣州":12283,"安縣":12284,"屬的":12285,"布萊":12286,"引用":12287,"支付":12288,"斯頓":12289,"是歐洲":12290,"氣流":12291,"波士":12292,"混凝土":12293,"特定的":12294,"環球":12295,"百分":12296,"的先":12297,"的自然":12298,"皮膚":12299,"精英":12300,"茶葉":12301,"華夏":12302,"補給":12303,"較小":12304,"銷量":12305,"日本海軍":12306,"戰爭期間":12307,"392":12308,"司令部":12309,"20世紀初":12310,"現今的":12311,"節度使":12312,"%\",":12313,"三八":12314,"不在":12315,"但仍":12316,"加薩":12317,"半衰":12318,"卜勒":12319,"吞併":12320,"和英國":12321,"哈佛":12322,"地名":12323,"均為":12324,"多名":12325,"安溪":12326,"差距":12327,"幹部":12328,"廣島":12329,"後代":12330,"我的":12331,"族羣":12332,"會造成":12333,"本部":12334,"水道":12335,"永遠":12336,"治安":12337,"海關":12338,"發佈":12339,"的核心":12340,"相傳":12341,"石窟":12342,"纖維":12343,"航行":12344,"落後":12345,"蕭條":12346,"被任命":12347,"詹森":12348,"貨運":12349,"遷入":12350,"重鎮":12351,"闡述":12352,"電荷":12353,"首批":12354,"高科技":12355,"1924年":12356,"美國海軍":12357,"香港人":12358,"歷史文化":12359,"479":12360,"出現於":12361,"443":12362,"並且在":12363,"俄羅斯帝國":12364,"保護單位":12365,"名為什麼":12366,"的重要性":12367,"量子力學":12368,"轟炸機":12369,"同位素":12370,"半衰期":12371,"1萬":12372,"449":12373,"之意":12374,"全線":12375,"其次":12376,"初步":12377,"則被":12378,"剩下":12379,"十四":12380,"口岸":12381,"官僚":12382,"山水":12383,"已開發":12384,"希伯":12385,"年均":12386,"旋轉":12387,"橫跨":12388,"此一":12389,"燕軍":12390,"的世界":12391,"的過程中":12392,"的兒子":12393,"西征":12394,"轉而":12395,"都要":12396,"阿瑟":12397,"陣營":12398,"香港島":12399,"關係的":12400,"放射性":12401,"2萬":12402,"328":12403,"5個":12404,"BA":12405,"DP":12406,"GDP":12407,"一所":12408,"不多":12409,"任職":12410,"來進行":12411,"個別":12412,"側的":12413,"儲量":12414,"判決":12415,"卡內":12416,"受傷":12417,"合稱":12418,"同治":12419,"在一些":12420,"埃歐":12421,"工商":12422,"愛德華":12423,"慢慢":12424,"捷克":12425,"排除":12426,"擊潰":12427,"文的":12428,"是將":12429,"曾是":12430,"最長的":12431,"會社":12432,"會長":12433,"本來":12434,"林肯":12435,"橋樑":12436,"浪漫":12437,"灌溉":12438,"王子":12439,"生效":12440,"的美國":12441,"的居民":12442,"的功能":12443,"的父親":12444,"秦始":12445,"號召":12446,"越過":12447,"農曆":12448,"近地":12449,"退位":12450,"這使得":12451,"那樣":12452,"銀河":12453,"集結":12454,"雍正":12455,"雷斯":12456,"453":12457,"477":12458,"韓國的":12459,"規模最大的":12460,"基本法":12461,"統一的":12462,"西班牙語":12463,"指的是哪一個":12464,"天主教徒":12465,"路易斯":12466,"在位時":12467,"幾月幾":12468,"he":12469,"ia":12470,"三千":12471,"下午":12472,"也可能":12473,"仁宗":12474,"他與":12475,"伐利亞":12476,"充足":12477,"公國":12478,"削弱":12479,"即是":12480,"史書":12481,"否則":12482,"回應":12483,"國大":12484,"在一個":12485,"壁畫":12486,"就任":12487,"就在":12488,"層面":12489,"布蘭":12490,"平地":12491,"度假":12492,"後才":12493,"打算":12494,"攝政":12495,"教廷":12496,"最爲":12497,"格爾":12498,"段祺":12499,"民衆":12500,"演奏":12501,"的東":12502,"的區域":12503,"的結構":12504,"石灰":12505,"穿過":12506,"等方面":12507,"紙幣":12508,"累積":12509,"自立":12510,"英鎊":12511,"虎的":12512,"觀眾":12513,"譴責":12514,"足協":12515,"首度":12516,"骨骼":12517,"政府在":12518,"第一家":12519,"英國協":12520,"政治協商會議":12521,"455":12522,"其中的":12523,"通過的":12524,"469":12525,"485":12526,"組成了":12527,"事件發生":12528,"宗教的":12529,"蘇聯的":12530,"完成了":12531,"西元前":12532,"第四次":12533,"源自於":12534,"失業率":12535,"通貨膨脹":12536,"多米尼加":12537,"顯微鏡":12538,"三重":12539,"並被":12540,"中斷":12541,"主角":12542,"事宜":12543,"他也":12544,"修道":12545,"克利":12546,"其為":12547,"原料":12548,"可追溯":12549,"含義":12550,"四周":12551,"塞琉":12552,"大名":12553,"寫成":12554,"山縣":12555,"度量":12556,"康有":12557,"建制":12558,"引力":12559,"戰區":12560,"收回":12561,"教派":12562,"是如何":12563,"極其":12564,"標示":12565,"歸屬":12566,"水中":12567,"沖積":12568,"港元":12569,"無機":12570,"焦點":12571,"爲止":12572,"狩獵":12573,"的生產":12574,"繪製":12575,"而得名":12576,"能在":12577,"西沙":12578,"該校":12579,"酋長":12580,"醍醐":12581,"量度":12582,"降雨量":12583,"馬德拉":12584,"第一批":12585,"人口最多的":12586,"452":12587,"458":12588,"生物學家":12589,"最高峰":12590,"441":12591,"計劃的":12592,"設立的":12593,"猶太人的":12594,"太陽能":12595,"足球俱樂部":12596,"來源於":12597,"的特徵":12598,"總部位於":12599,"機器人":12600,"納粹德國":12601,"金曲獎":12602,"秦始皇":12603,"段祺瑞":12604,"4000":12605,"ig":12606,"上面":12607,"不大":12608,"乃至":12609,"之鄉":12610,"交大":12611,"人被":12612,"他將":12613,"休息":12614,"但是在":12615,"內外":12616,"全縣":12617,"兩名":12618,"公轉":12619,"劃分為":12620,"原有":12621,"台中":12622,"合一":12623,"周禮":12624,"和發展":12625,"圍攻":12626,"填海":12627,"大體":12628,"寫作":12629,"將近":12630,"後裔":12631,"採納":12632,"新南":12633,"早已":12634,"時空":12635,"晚上":12636,"最少":12637,"最長":12638,"月份":12639,"木材":12640,"未有":12641,"松柏":12642,"查爾斯":12643,"此地":12644,"歷經":12645,"水面":12646,"溫暖":12647,"為主要":12648,"的軌道":12649,"盛產":12650,"社團":12651,"秀吉":12652,"突出":12653,"等人的":12654,"紀年":12655,"美麗":12656,"藏傳佛教":12657,"遺蹟":12658,"重量":12659,"開辦":12660,"陣線":12661,"國家中":12662,"地區和":12663,"人民委員會":12664,"459":12665,"462":12666,"中央政治局":12667,"總統選舉":12668,"面積約":12669,"一般的":12670,"之間的關係":12671,"在2006年":12672,"表現出":12673,"國立大學":12674,"發行的":12675,"文物保護單位":12676,"為首的":12677,"希伯來":12678,"325":12679,"ay":12680,"一方":12681,"並由":12682,"主場":12683,"公佈":12684,"公斤":12685,"冊封":12686,"動脈":12687,"反共":12688,"吉斯":12689,"基酸":12690,"大賽":12691,"官職":12692,"少量":12693,"尼基":12694,"層次":12695,"布希":12696,"待遇":12697,"應付":12698,"戲曲":12699,"描繪":12700,"方程":12701,"業者":12702,"歌唱":12703,"水源":12704,"海南":12705,"澎湖":12706,"濕潤":12707,"率先":12708,"的日":12709,"的時期":12710,"的著作":12711,"皮特":12712,"看見":12713,"科夫":12714,"站的":12715,"競賽":12716,"總數":12717,"薩摩":12718,"薩爾":12719,"裕仁":12720,"西夏":12721,"訴訟":12722,"語文":12723,"較爲":12724,"迄今":12725,"重工業":12726,"開播":12727,"龐大的":12728,"可以看到":12729,"經濟學家":12730,"人口密度":12731,"文化廣播公司":12732,"其中以":12733,"501":12734,"希臘化":12735,"提供的":12736,"1890年":12737,"自治縣":12738,"1887年":12739,"了一系列":12740,"古典音樂":12741,"類似於":12742,"簽訂了":12743,"創立的":12744,"福建人":12745,"特殊的":12746,"蒸汽機車":12747,"總人口的":12748,"50年":12749,"一體":12750,"之久":12751,"之變":12752,"九個":12753,"也很":12754,"以致":12755,"伊努":12756,"克爾":12757,"兩地":12758,"分化":12759,"加大":12760,"十七":12761,"南亞":12762,"哈德":12763,"在全球":12764,"壓倒":12765,"子女":12766,"安南":12767,"定位":12768,"對付":12769,"州長":12770,"布加勒":12771,"彈劾":12772,"德川":12773,"戴維":12774,"攝取":12775,"斯加":12776,"斯德":12777,"明的":12778,"有超過":12779,"某個":12780,"格的":12781,"殺害":12782,"法輪":12783,"添加":12784,"清晰":12785,"港澳":12786,"源頭":12787,"瀏覽":12788,"生涯":12789,"用什麼":12790,"的恆星":12791,"真理":12792,"維奇":12793,"至元":12794,"與英國":12795,"航班":12796,"落成":12797,"質量的":12798,"路面":12799,"道光":12800,"達到了":12801,"開鑿":12802,"院士":12803,"隋唐":12804,"電路":12805,"騰堡":12806,"驅動":12807,"高斯":12808,"1923年":12809,"1930年代":12810,"開始於":12811,"經濟體":12812,"475":12813,"在哪一年正式":12814,"地方自治":12815,"還有哪一個":12816,"進入了":12817,"1903年":12818,"思想家":12819,"北京市":12820,"有關的":12821,"總督府":12822,"知識分子":12823,"哪一個國家所管轄":12824,"河北省":12825,"漢諾威":12826,"中央軍委":12827,"秘書長":12828,"奧古斯都":12829,"希特勒":12830,"聯合國教科文組織":12831,"布加勒斯特":12832,"1200":12833,"一國":12834,"一統":12835,"三級":12836,"之首":12837,"也曾":12838,"倫堡":12839,"八個":12840,"可汗":12841,"圍剿":12842,"在這些":12843,"基層":12844,"多達":12845,"天堂":12846,"導電":12847,"廣鐵路":12848,"或其他":12849,"接替":12850,"數分裂":12851,"時所":12852,"法典":12853,"減數分裂":12854,"炎熱":12855,"特魯":12856,"現場":12857,"理會":12858,"磁性":12859,"福特":12860,"立國":12861,"等同":12862,"維拉":12863,"美的":12864,"花崗":12865,"要素":12866,"許可":12867,"起草":12868,"轉播":12869,"進程":12870,"遣返":12871,"都屬於":12872,"陣亡":12873,"雙子":12874,"駐港":12875,"中國古代":12876,"1500":12877,"第一所":12878,"使用什麼":12879,"政治家":12880,"歷史悠久":12881,"認為是":12882,"473":12883,"474":12884,"會議員":12885,"技術的":12886,"444":12887,"是誰說的":12888,"一直是":12889,"大約有":12890,"天文單位":12891,"天主教會":12892,"的特點":12893,"贏得了":12894,"卡拉巴赫":12895,"升格為":12896,"大英帝國":12897,"被認爲是":12898,"博覽會":12899,"中全會":12900,"東印度公司":12901,"卡內基":12902,"不可能":12903,"來往":12904,"保衛":12905,"優先":12906,"克卜勒":12907,"六月":12908,"則天":12909,"動機":12910,"去氧":12911,"史料":12912,"在許多":12913,"外匯":12914,"家公司":12915,"實證":12916,"寧夏":12917,"層的":12918,"常用的":12919,"意為":12920,"憲政":12921,"戰線":12922,"教義":12923,"散文":12924,"普選":12925,"格魯":12926,"業的":12927,"極大的":12928,"此事":12929,"消除":12930,"為界":12931,"父母":12932,"的教育":12933,"的形成":12934,"的建議":12935,"種種":12936,"穆罕":12937,"糾紛":12938,"細亞":12939,"臺南":12940,"行駛":12941,"被廣泛":12942,"識別":12943,"議案":12944,"這也":12945,"酒精":12946,"阻礙":12947,"雷根":12948,"高峰":12949,"高鐵":12950,"12個":12951,"開始的":12952,"466":12953,"467":12954,"在哪一年開始":12955,"」，「":12956,"所有權":12957,"中華人民共和國成立後":12958,"蒙古人":12959,"物質的":12960,"倫敦大學":12961,"市場經濟":12962,"教會的":12963,"定義為":12964,"在2005年":12965,"資料庫":12966,"強烈的":12967,"修正案":12968,"5萬":12969,"5000":12970,"上皇":12971,"中等":12972,"共識":12973,"分治":12974,"到來":12975,"力發電":12976,"化工":12977,"北面":12978,"十萬":12979,"南昌":12980,"反射":12981,"可可":12982,"周公":12983,"和誰":12984,"哈薩克":12985,"國力":12986,"城內":12987,"夏威":12988,"家人":12989,"新約":12990,"早年":12991,"月台":12992,"模擬":12993,"正當":12994,"為由":12995,"物體的":12996,"當今":12997,"的字":12998,"的摩":12999,"的政府":13000,"的兩個":13001,"的計劃":13002,"相差":13003,"真宗":13004,"秋明":13005,"紀律":13006,"絕大部分":13007,"維也":13008,"總是":13009,"總額":13010,"葉赫":13011,"融入":13012,"調節":13013,"通信":13014,"％，":13015,"什麼事件":13016,"457":13017,"472":13018,"476":13019,"478":13020,"508":13021,"481":13022,"一些人":13023,"生活的":13024,"接受了":13025,"的影響力":13026,"。」\",":13027,"分之二":13028,"大約在":13029,"發動機":13030,"拉丁美洲":13031,"簽訂的":13032,"的特色":13033,"地理位置":13034,"失去了":13035,"有效的":13036,"維基百科":13037,"同性戀":13038,"航海家":13039,"十一月":13040,"本科生":13041,"昭和天皇":13042,"民進黨":13043,"穆罕默":13044,"七個":13045,"上任":13046,"中也":13047,"中所":13048,"但不":13049,"低地":13050,"儒學":13051,"入學":13052,"出入":13053,"出海":13054,"千年":13055,"印歐":13056,"反擊":13057,"反法":13058,"名人":13059,"問世":13060,"回憶":13061,"在現代":13062,"大阪":13063,"天的":13064,"安史":13065,"所轄":13066,"探討":13067,"攜帶":13068,"放在":13069,"文書":13070,"於哪一個":13071,"日點":13072,"旨在":13073,"明軍":13074,"暗殺":13075,"未來的":13076,"李成":13077,"桿菌":13078,"模仿":13079,"步槍":13080,"歲時":13081,"比率":13082,"沿線":13083,"用了":13084,"的活動":13085,"的範圍":13086,"的勝利":13087,"的意見":13088,"租借":13089,"級別":13090,"總結":13091,"者和":13092,"肥沃":13093,"與哪一":13094,"航運":13095,"螺旋":13096,"衝鋒":13097,"質的":13098,"較高的":13099,"都以":13100,"阿伊努":13101,"革新":13102,"13個":13103,"日本帝國":13104,"建立一個":13105,"許多人":13106,"468":13107,"民主共和國":13108,"之前的":13109,"宣布獨立":13110,"東北地區":13111,"民主黨派":13112,"外交部":13113,"新聞局":13114,"在2007年":13115,"奧匈帝國":13116,"ol":13117,"ur":13118,"上了":13119,"上書":13120,"上水":13121,"二級":13122,"伊爾":13123,"利安":13124,"動亂":13125,"動盪":13126,"史蒂":13127,"各部":13128,"土衛":13129,"在韓國":13130,"大屠殺":13131,"姆士":13132,"宣統":13133,"射擊":13134,"岸的":13135,"巴巴":13136,"布羅":13137,"弟弟":13138,"情感":13139,"戒嚴":13140,"描寫":13141,"政經":13142,"於18":13143,"春季":13144,"正規":13145,"深受":13146,"煤礦":13147,"用地":13148,"的平均":13149,"直隸":13150,"祖兒":13151,"約佔":13152,"羽球":13153,"血統":13154,"裏的":13155,"西比":13156,"購物":13157,"起兵":13158,"足以":13159,"軸心":13160,"遣使":13161,"配備":13162,"開啟":13163,"開闢":13164,"防守":13165,"願意":13166,"麥可":13167,"點的":13168,"中國時報":13169,"13世紀":13170,"國家主席":13171,"主要為":13172,"政治的":13173,"454":13174,"影響的":13175,"哪個單位":13176,"工作的":13177,"活動的":13178,"宗教改革":13179,"自然資源":13180,"1899年":13181,"第三大":13182,"結束了":13183,"參與了":13184,"群島的":13185,"有一定":13186,"在20世紀":13187,"紐約市":13188,"複雜的":13189,"傾向於":13190,"麥克阿瑟":13191,"那霸市":13192,"東正教":13193,"加利福":13194,"560":13195,"中環":13196,"中哪一":13197,"二戰後":13198,"亞當":13199,"亞細亞":13200,"似乎":13201,"公式":13202,"冶金":13203,"分歧":13204,"剩餘":13205,"勞動力":13206,"即為":13207,"右翼":13208,"在經濟":13209,"垂直":13210,"培訓":13211,"失利":13212,"她的":13213,"孫吳":13214,"實用":13215,"專注":13216,"對峙":13217,"尼古拉":13218,"巴伐利亞":13219,"帝王":13220,"庇護":13221,"悲劇":13222,"撤出":13223,"擊退":13224,"攻破":13225,"新華":13226,"是其":13227,"曾有":13228,"服從":13229,"格里":13230,"機率":13231,"此次":13232,"沃爾":13233,"沙田":13234,"河段":13235,"洪秀":13236,"無力":13237,"猴子":13238,"的四":13239,"的手":13240,"的東西":13241,"的資料":13242,"的目標":13243,"直轄":13244,"瞭解":13245,"秦朝":13246,"著的":13247,"詹姆士":13248,"變為":13249,"赫爾":13250,"辭去":13251,"適當":13252,"適用於":13253,"那裡":13254,"都是由":13255,"院的":13256,"雕塑":13257,"電解":13258,"預備":13259,"麥隆":13260,"1916年":13261,"可以通過":13262,"研究型":13263,"羅馬皇帝":13264,"463":13265,"486":13266,"100萬":13267,"俄羅斯的":13268,"文學作品":13269,"的原因為":13270,"市場的":13271,"阿拉伯國家":13272,"1870年":13273,"咖啡豆":13274,"製作的":13275,"內部的":13276,"引起了":13277,"證明了":13278,"彰化市":13279,"古拉索":13280,"鄂圖曼帝國":13281,"伊利諾":13282,"法輪功":13283,"430":13284,"一路":13285,"三位":13286,"上新世":13287,"不要":13288,"主機":13289,"亦為":13290,"則認為":13291,"哲學的":13292,"團長":13293,"報復":13294,"夏天":13295,"大權":13296,"大貓熊":13297,"天體的":13298,"太守":13299,"姿態":13300,"容納":13301,"就被":13302,"局長":13303,"德斯":13304,"是人類":13305,"時鐘":13306,"暹羅":13307,"有意":13308,"格林":13309,"民系":13310,"港島":13311,"港的":13312,"濟州":13313,"營利":13314,"王守":13315,"由來":13316,"畜牧業":13317,"番禺":13318,"異常":13319,"的第二":13320,"直屬":13321,"童年":13322,"索尼":13323,"罕布":13324,"聯絡":13325,"菲爾":13326,"著稱":13327,"製成":13328,"語中":13329,"誰是":13330,"辦理":13331,"造紙":13332,"過半":13333,"遺跡":13334,"院系":13335,"雪梨":13336,"預期":13337,"世界摔角":13338,"經濟區":13339,"文化中":13340,"的一次":13341,"509":13342,"印度教":13343,"487":13344,"497":13345,"民族的":13346,"聯邦共和國":13347,"太空總署":13348,"在2003年":13349,"巴黎地鐵":13350,"資訊科技":13351,"計算機":13352,"的高度":13353,"變成了":13354,"國防部":13355,"創造了":13356,"雲南省":13357,"北洋政府":13358,"核糖核酸":13359,"太空飛行器":13360,"夏威夷":13361,"1個":13362,"us":13363,"ve":13364,"中將":13365,"以太":13366,"信用":13367,"力學的":13368,"化和":13369,"北極":13370,"史學家":13371,"同一個":13372,"在古代":13373,"威海":13374,"存活":13375,"客觀":13376,"山市":13377,"峽谷":13378,"已成為":13379,"平坦":13380,"復辟":13381,"志明":13382,"憑藉":13383,"所組成的":13384,"打開":13385,"摩托":13386,"擴充":13387,"有不少":13388,"棲息":13389,"武則天":13390,"殲滅":13391,"民營":13392,"照明":13393,"爾摩":13394,"率兵":13395,"的阿":13396,"直線":13397,"相近":13398,"窩闊":13399,"級的":13400,"編制":13401,"縱貫":13402,"遇到":13403,"道夫":13404,"野戰":13405,"金門":13406,"錫山":13407,"首爾":13408,"大學和":13409,"美國政府":13410,"國際足總":13411,"456":13412,"組織法":13413,"471":13414,"461":13415,"488":13416,"地方政府":13417,"理論上":13418,"機構的":13419,"存在著":13420,"超過了":13421,"的原始":13422,"開發中國":13423,"公共汽車":13424,"漢字的":13425,"社會主義國家":13426,"開放的":13427,"原子核":13428,"十二月":13429,"十九世紀":13430,"絲綢之路":13431,"因斯布魯克":13432,"罕布夏":13433,"一份":13434,"七十":13435,"三分之一":13436,"修斯":13437,"倫理":13438,"偷渡":13439,"儀器":13440,"公正":13441,"劇場":13442,"反攻":13443,"可在":13444,"和其":13445,"唐人":13446,"單詞":13447,"土著":13448,"在與":13449,"埃爾":13450,"外界":13451,"多萬":13452,"大將":13453,"客戶":13454,"年底":13455,"感染":13456,"懸浮":13457,"斯塔":13458,"施政":13459,"星馳":13460,"是臺灣":13461,"更爲":13462,"有兩":13463,"李白":13464,"歇爾":13465,"法系":13466,"特有的":13467,"瓜分":13468,"生理":13469,"甲骨":13470,"畫面":13471,"碰撞":13472,"磷酸":13473,"縣政府":13474,"缺少":13475,"罕見":13476,"老鷹":13477,"視覺":13478,"貝勒":13479,"跨越":13480,"邦聯":13481,"金鐘":13482,"開拓":13483,"阻擋":13484,"阿姆":13485,"饑荒":13486,"馬賽":13487,"高山":13488,"研究中心":13489,"戰爭後":13490,"483":13491,"工業區":13492,"的人士":13493,"革命黨":13494,"的大小":13495,"蒙古國":13496,"政權的":13497,"1871年":13498,"是一位":13499,"列寧主義":13500,"設置的":13501,"古典自由主義":13502,"在哪一個世紀":13503,"促進了":13504,"拜占庭帝國":13505,"二次大戰":13506,"這句話是誰說的":13507,"被譽為":13508,"洪秀全":13509,"6個":13510,"三百":13511,"不達":13512,"之所以":13513,"也成為":13514,"互動":13515,"他所":13516,"伯爵":13517,"做了":13518,"儲備":13519,"冰川":13520,"凝聚":13521,"分隔":13522,"北大":13523,"協約國":13524,"卻是":13525,"各國的":13526,"和日本":13527,"哈里":13528,"啟蒙":13529,"在台灣":13530,"在某些":13531,"密西":13532,"寺廟":13533,"對待":13534,"巴達":13535,"彼德":13536,"換取":13537,"新幹線":13538,"是英國":13539,"時會":13540,"杜魯":13541,"東區":13542,"沙烏":13543,"法屬":13544,"清華":13545,"漢代":13546,"瀘州":13547,"火災":13548,"版權":13549,"特人":13550,"珠江":13551,"的多":13552,"的其他":13553,"的機會":13554,"約在":13555,"舊石器時代":13556,"花費":13557,"蓬勃":13558,"薩洛":13559,"論述":13560,"諷刺":13561,"農產品":13562,"農作物":13563,"這就是":13564,"遼寧":13565,"開幕":13566,"順序":13567,"風俗":13568,"飲用":13569,"1926年":13570,"中國科學院":13571,"14世紀":13572,"大學生":13573,"以及其他":13574,"第一大":13575,"發展為":13576,"21世紀":13577,"電視頻道":13578,"國民大會":13579,"1901年":13580,"的地震":13581,"個人電腦":13582,"南方的":13583,"排名中":13584,"畢業生":13585,"年平均氣溫":13586,"漢諾瓦":13587,"安史之亂":13588,"Xbox":13589,"oo":13590,"之役":13591,"伊比":13592,"倍體":13593,"傾斜":13594,"公寓":13595,"共計":13596,"升級":13597,"叛變":13598,"古埃及":13599,"各大":13600,"否定":13601,"周星馳":13602,"和諧":13603,"唐玄宗":13604,"嚴厲":13605,"固定的":13606,"士大夫":13607,"姓氏":13608,"威特":13609,"安撫":13610,"富裕":13611,"封閉":13612,"就像":13613,"尼克斯":13614,"布里":13615,"幾種":13616,"廣闊":13617,"德爾":13618,"憲章":13619,"或稱":13620,"所作":13621,"排序":13622,"損害":13623,"最好的":13624,"有不同的":13625,"東芝":13626,"極權":13627,"權益":13628,"歷時":13629,"決戰":13630,"浸信":13631,"潛艇":13632,"為此":13633,"獲獎":13634,"當天":13635,"的神":13636,"的日本":13637,"的動物":13638,"的保護":13639,"的規定":13640,"總兵":13641,"草案":13642,"莎白":13643,"蔬菜":13644,"複合":13645,"貧困":13646,"轉運":13647,"逃離":13648,"鄰國":13649,"金陵":13650,"關稅":13651,"集會":13652,"雕像":13653,"一個人":13654,"人民的":13655,"英國首相":13656,"其中有":13657,"歐洲人":13658,"503":13659,"505":13660,"506":13661,"482":13662,"484":13663,"499":13664,"民主社會主義":13665,"生物的":13666,"一般來說":13667,"最後一次":13668,"宗教信仰":13669,"萬人次":13670,"中國大陸的":13671,"發動了":13672,"在2009年":13673,"程度的":13674,"生態系":13675,"自行車":13676,"即位後":13677,"十字軍東征":13678,"證券交易所":13679,"醍醐天皇":13680,"杜魯門":13681,"一旦":13682,"一時":13683,"傳記":13684,"制服":13685,"南冰洋":13686,"吞吐":13687,"哈得":13688,"天空":13689,"對比":13690,"很高":13691,"患者":13692,"手術":13693,"排行":13694,"日漸":13695,"是與":13696,"智利":13697,"村莊":13698,"欽察":13699,"海牙":13700,"滾石":13701,"炸彈":13702,"熟悉":13703,"的成員":13704,"的元素":13705,"的政黨":13706,"的記載":13707,"神論":13708,"禮物":13709,"紐埃":13710,"而使得":13711,"被俘":13712,"講話":13713,"這部":13714,"連結":13715,"鐵礦":13716,"領事":13717,"顏色的":13718,"高架":13719,"以及哪裡":13720,"經濟合作":13721,"成為一個":13722,"建立起":13723,"科學研究":13724,"465":13725,"全國性":13726,"502":13727,"489":13728,"496":13729,"498":13730,"聯合國的":13731,"蒙古帝國":13732,"負責人":13733,"地球表面":13734,"外交政策":13735,"保守主義":13736,"至今仍":13737,"爾斯克":13738,"確立了":13739,"阿森松":13740,"參謀長":13741,"亞里士多德":13742,"織女星":13743,"維也納":13744,"沙烏地":13745,"60年代":13746,"一批":13747,"中蘇":13748,"亞利":13749,"伏爾":13750,"但也有":13751,"低溫":13752,"俄軍":13753,"個人的":13754,"傳奇":13755,"元軍":13756,"公告":13757,"公認":13758,"列島":13759,"前所":13760,"叛軍":13761,"合金":13762,"喀爾":13763,"在西方":13764,"在哪邊":13765,"子和":13766,"市轄區":13767,"平埔":13768,"座堂":13769,"引導":13770,"得出":13771,"慣性":13772,"房地產":13773,"技巧":13774,"拉圖":13775,"排放":13776,"提亞":13777,"救援":13778,"新城":13779,"日元":13780,"梵語":13781,"樂器":13782,"次大陸":13783,"泉州":13784,"深度":13785,"灣區":13786,"爬行":13787,"現行":13788,"現金":13789,"病逝":13790,"的書":13791,"的正式":13792,"的機構":13793,"的行為":13794,"的威脅":13795,"的起源":13796,"科爾":13797,"維生素":13798,"藉此":13799,"說服":13800,"諾曼":13801,"豐臣":13802,"買賣":13803,"輿論":13804,"遠的":13805,"還會":13806,"部位":13807,"鄭州":13808,"開戰":13809,"馬里":13810,"中國和":13811,"一個月":13812,"地區有":13813,"美國國會":13814,"開始有":13815,"聯合政府":13816,"已經被":13817,"面積為":13818,"中華人民共和國憲法":13819,"朝鮮人民軍":13820,"中華民國的":13821,"平方千米":13822,"化學元素":13823,"1858年":13824,"指揮官":13825,"學術界":13826,"綜合性":13827,"保留了":13828,"威廉二世":13829,"競爭力":13830,"總面積的":13831,"武漢大學":13832,"年輕的":13833,"可見光":13834,"全國人民代表大會常務委員會":13835,"法蘭克福":13836,"波羅的海":13837,"激烈的":13838,"標記式":13839,"可以追溯至":13840,"慈禧太后":13841,"記憶體":13842,"安東尼":13843,"8個":13844,"並把":13845,"也對":13846,"人造":13847,"使節":13848,"公交":13849,"制訂":13850,"前進":13851,"劉宋":13852,"北朝":13853,"北齊":13854,"南沙":13855,"困擾":13856,"在法國":13857,"在186":13858,"在戰後":13859,"在過去":13860,"天子":13861,"始祖":13862,"容量":13863,"寡頭":13864,"就能":13865,"已於":13866,"建都":13867,"思考":13868,"拉德":13869,"掠奪":13870,"據說":13871,"政局":13872,"文本":13873,"斯和":13874,"新罕布夏":13875,"植被":13876,"樞密":13877,"每一":13878,"每次":13879,"民生":13880,"氣氛":13881,"泰勒":13882,"海防":13883,"災害":13884,"發育":13885,"盟友":13886,"縮寫":13887,"肌肉":13888,"與法國":13889,"航道":13890,"贊助":13891,"起事":13892,"辦學":13893,"通稱":13894,"遵循":13895,"郡的":13896,"都是在":13897,"開港":13898,"除非":13899,"雕刻":13900,"雷克":13901,"駐地":13902,"什麼時期":13903,"以及誰":13904,"英國政府":13905,"國際太空站":13906,"行政區域":13907,"的人物":13908,"規模的":13909,"標準化":13910,"仍然是":13911,"中山市":13912,"客家語":13913,"臨時政府":13914,"引發了":13915,"湖南省":13916,"科幻小說":13917,"大洋洲":13918,"花崗岩":13919,"亞利桑":13920,"1億":13921,"570":13922,"NBA":13923,"中日":13924,"他人":13925,"僧侶":13926,"克魯":13927,"冷卻":13928,"列夫":13929,"厚的":13930,"原名":13931,"可口":13932,"和海":13933,"土星":13934,"埃涅":13935,"城門":13936,"堅決":13937,"多項":13938,"大成":13939,"大地震":13940,"奧爾":13941,"安置":13942,"寧波":13943,"寺院":13944,"干擾":13945,"座城市":13946,"廢除了":13947,"復活":13948,"意外":13949,"拆除":13950,"招收":13951,"控股":13952,"提交":13953,"支撐":13954,"改用":13955,"新市鎮":13956,"是通過":13957,"是德國":13958,"時刻":13959,"曹丕":13960,"最廣":13961,"最快":13962,"會以":13963,"會談":13964,"朝政":13965,"果實":13966,"校方":13967,"極限":13968,"武術":13969,"歸還":13970,"洛維":13971,"海嘯":13972,"淮安":13973,"滲透":13974,"無關":13975,"獻帝":13976,"田徑":13977,"發放":13978,"的電影":13979,"的角色":13980,"的稱號":13981,"的態度":13982,"監視":13983,"礦業":13984,"秦嶺":13985,"立陶":13986,"總教練":13987,"胡志明":13988,"與世界":13989,"興國":13990,"萬里":13991,"裡面":13992,"辣椒":13993,"郵件":13994,"關心":13995,"電纜":13996,"首屆":13997,"黃色":13998,"黑海":13999,"1915年":14000,"中國科學技術":14001,"15個":14002,"哪一個朝代":14003,"社會民主黨":14004,"歷史最":14005,"在哪一年成立":14006,"492":14007,"494":14008,"語言中":14009,"正式的":14010,"1902年":14011,"1907年":14012,"特別是在":14013,"貿易的":14014,"聯合國大會":14015,"採用了":14016,"的地級市":14017,"集中於":14018,"的特殊":14019,"重慶市":14020,"流行音樂":14021,"吸引了":14022,"黑龍江省":14023,"麻省理工學院":14024,"正確的":14025,"創始人":14026,"凡爾賽條約":14027,"狹義相對論":14028,"泰晤士河":14029,"薩斯州":14030,"義和團":14031,"弗雷德":14032,"唐人街":14033,"亞利桑那":14034,"559":14035,"NH":14036,"am":14037,"不一":14038,"中外":14039,"之於":14040,"事故":14041,"代之":14042,"備受":14043,"分明":14044,"別克":14045,"和新":14046,"嚴謹":14047,"四次":14048,"四軍":14049,"大興":14050,"大教堂":14051,"太學":14052,"太行":14053,"宗派":14054,"將於":14055,"後漢書":14056,"戰死":14057,"手法":14058,"抽象":14059,"採集":14060,"於哪一":14061,"是甚麼":14062,"有助":14063,"有相當":14064,"本國":14065,"權分立":14066,"母艦":14067,"沼澤":14068,"波茨":14069,"泰山":14070,"減輕":14071,"獎勵":14072,"球迷":14073,"用在":14074,"的同":14075,"的目的":14076,"真寺":14077,"確實":14078,"神父":14079,"空襲":14080,"算是":14081,"而產生":14082,"而導致":14083,"腸桿菌":14084,"著手":14085,"血糖":14086,"衛一":14087,"該島":14088,"變遷":14089,"赫魯":14090,"軍民":14091,"逃到":14092,"遠征":14093,"邊疆":14094,"都沒有":14095,"隔離":14096,"靜止":14097,"頂級":14098,"駐紮":14099,"主要以":14100,"11世紀":14101,"英國和":14102,"國際奧委會":14103,"戰爭爆發":14104,"507":14105,"自由派":14106,"哪個人":14107,"聯合王國":14108,"委員會主席":14109,"會議中":14110,"一般而言":14111,"朝鮮勞動黨":14112,"選舉制度":14113,"基礎設施":14114,"交通部":14115,"投票制度":14116,"在2004年":14117,"佔領了":14118,"福建省":14119,"四川省":14120,"布魯克林":14121,"蒸汽機":14122,"風景區":14123,"五月天":14124,"印第安納":14125,"歷史文化名城":14126,"波茨坦":14127,"668":14128,"re":14129,"一片":14130,"上午":14131,"並對":14132,"並為":14133,"並開始":14134,"中興":14135,"也逐漸":14136,"休閒":14137,"倡導":14138,"假說":14139,"凱撒":14140,"出產":14141,"勝出":14142,"古墳":14143,"可靠":14144,"哈頓":14145,"國內的":14146,"在歷史上":14147,"報刊":14148,"多瓦":14149,"大不列顛":14150,"大英國協":14151,"奉行":14152,"子宮":14153,"子植物":14154,"存取":14155,"實權":14156,"寫道":14157,"專用":14158,"對話":14159,"尼泊":14160,"屬地":14161,"平壤":14162,"廢棄":14163,"微粒":14164,"心血管":14165,"應用於":14166,"截止":14167,"推測":14168,"撤回":14169,"斯密":14170,"於同年":14171,"是研究":14172,"普拉":14173,"橄欖":14174,"檢察":14175,"水域":14176,"港督":14177,"為新":14178,"為世界":14179,"狀的":14180,"由美國":14181,"界限":14182,"當初":14183,"的管理":14184,"的分類":14185,"真的":14186,"科威特":14187,"稀少":14188,"編纂":14189,"老舍":14190,"蘭克林":14191,"處在":14192,"論壇":14193,"軍委":14194,"遷到":14195,"選中":14196,"都為":14197,"都能":14198,"長約":14199,"閻錫山":14200,"阿薩":14201,"降雨":14202,"陽縣":14203,"電壓":14204,"魚雷":14205,"中國科大":14206,"什麼原因":14207,"哪一個地方":14208,"發展成":14209,"人口約":14210,"代表人物":14211,"全國代表大會":14212,"的人類":14213,"時間的":14214,"會議的":14215,"國民議會":14216,"擁有的":14217,"還有一些":14218,"442":14219,"殖民者":14220,"集團軍":14221,"最大城市":14222,"持續到":14223,"夏季奧林匹克運動會":14224,"發起的":14225,"達成協議":14226,"相應的":14227,"柴契爾夫人":14228,"松柏門":14229,"21年":14230,"》?\",":14231,"並稱":14232,"介質":14233,"他被":14234,"假日":14235,"兩側":14236,"冥王星":14237,"冰雪":14238,"前來":14239,"參觀":14240,"只得":14241,"右派":14242,"同步":14243,"否認":14244,"圖形":14245,"塔爾":14246,"大倫敦":14247,"奠基":14248,"季後":14249,"宗旨":14250,"富蘭克林":14251,"封為":14252,"希爾":14253,"建安":14254,"後又":14255,"惡劣":14256,"慈善":14257,"數為":14258,"旁遮":14259,"更換":14260,"曼哈頓":14261,"會見":14262,"期貨":14263,"未經":14264,"村落":14265,"正義":14266,"河和":14267,"物價":14268,"瑪斯":14269,"白話":14270,"的電子":14271,"的商業":14272,"的勢力":14273,"破裂":14274,"符登堡":14275,"艾倫":14276,"艾尼克斯":14277,"菲利":14278,"萬名":14279,"萬年":14280,"蘇里":14281,"蘇門":14282,"身爲":14283,"迎接":14284,"這兩種":14285,"錄取":14286,"長途":14287,"關中":14288,"阿克":14289,"馬漢":14290,"驗證":14291,"高祖":14292,"中國在":14293,"11個":14294,"0年前":14295,"科學的":14296,"的一切":14297,"屬於哪一種":14298,"一種是":14299,"多數黨":14300,"俄羅斯聯邦":14301,"1897年":14302,"思想的":14303,"天文臺":14304,"舉辦了":14305,"在2000年":14306,"北方的":14307,"航空公司":14308,"意義上的":14309,"海洋性":14310,"元朝的":14311,"何時開始":14312,"出生於":14313,"都督府":14314,"智慧型":14315,"基輔羅斯":14316,"已開發國家":14317,"塞琉古":14318,"吞吐量":14319,"可口可樂":14320,"旁遮普":14321,"569":14322,"670":14323,"一日":14324,"三分之二":14325,"不被":14326,"不平等":14327,"中美":14328,"事後":14329,"二元":14330,"以至於":14331,"但這":14332,"位列":14333,"俘虜":14334,"僱主":14335,"克威爾":14336,"兌換":14337,"利奧":14338,"助理":14339,"勇軍":14340,"取決":14341,"吾爾":14342,"噴射":14343,"四種":14344,"在幾月幾":14345,"奉天":14346,"寫了":14347,"對日":14348,"山山脈":14349,"師生":14350,"張作":14351,"強盛":14352,"彩色":14353,"思維":14354,"感光":14355,"捷克斯":14356,"故此":14357,"斯巴達":14358,"於什麼時候":14359,"曼城":14360,"會對":14361,"會出現":14362,"有其":14363,"柏拉圖":14364,"柯林":14365,"校慶":14366,"框架":14367,"構想":14368,"毀滅":14369,"氏族":14370,"氣壓":14371,"沉積":14372,"瀕臨":14373,"爲一":14374,"獎牌":14375,"玉米":14376,"球衣":14377,"的例子":14378,"監測":14379,"盧森堡":14380,"相聲":14381,"真空":14382,"穿越":14383,"翌年":14384,"而死":14385,"臨安":14386,"自哪一年開始":14387,"與應用":14388,"茂宜":14389,"落實":14390,"西岸":14391,"跟隨":14392,"過了":14393,"遠離":14394,"銅鑼":14395,"順治":14396,"頒佈":14397,"魏晉":14398,"中國歷史上":14399,"2500":14400,"稱為什麼":14401,"495":14402,"已經開始":14403,"584":14404,"統治時期":14405,"希臘人":14406,"985":14407,"1909年":14408,"需要的":14409,"上海市":14410,"阿拉巴馬":14411,"物理學的":14412,"的原住":14413,"指的是哪一":14414,"製造商":14415,"科技大學":14416,"國務卿":14417,"1789年":14418,"的主題":14419,"建造了":14420,"無線電視":14421,"考慮到":14422,"嚴格的":14423,"聚居地":14424,"下轄的地級市":14425,"達爾文":14426,"錫安主義":14427,"尼泊爾":14428,"40年":14429,"557":14430,"AT":14431,"一戰":14432,"一連串":14433,"下旬":14434,"不承認":14435,"不穩定":14436,"中是":14437,"之爭":14438,"之都":14439,"什葉":14440,"他為":14441,"來表示":14442,"停火":14443,"共用":14444,"分的":14445,"前列":14446,"勝地":14447,"博多":14448,"危害":14449,"名錄":14450,"向外":14451,"哪些":14452,"四百":14453,"在南京":14454,"地表":14455,"多瑙":14456,"夥伴":14457,"夸克":14458,"就此":14459,"山羊":14460,"州府":14461,"幸福":14462,"必武":14463,"所學校":14464,"掌權":14465,"排斥":14466,"數千":14467,"星體":14468,"是當時":14469,"有名的":14470,"林根":14471,"林業":14472,"核醣":14473,"標本":14474,"武士":14475,"每年的":14476,"比倫":14477,"民俗":14478,"流失":14479,"為一個":14480,"無窮":14481,"爲其":14482,"特里":14483,"特色的":14484,"當前":14485,"祖籍":14486,"策劃":14487,"納米":14488,"縮小":14489,"胺基酸":14490,"莊園":14491,"萬元":14492,"董必武":14493,"蒸發":14494,"號稱":14495,"詞典":14496,"請願":14497,"諸國":14498,"譯為":14499,"身上":14500,"違背":14501,"遠古":14502,"陶器":14503,"霍爾":14504,"風氣":14505,"鼎盛":14506,"10個":14507,"政府首腦":14508,"可以分為":14509,"哪一個組織":14510,"英國在":14511,"國際聯盟":14512,"位於中國":14513,"影響力的":14514,"代表性":14515,"中央銀行":14516,"面積的":14517,"事件的":14518,"環境保護":14519,"基督教的":14520,"企業的":14521,"廣播電視":14522,"的地形":14523,"都市圈":14524,"新聞自由":14525,"物種的":14526,"資訊網":14527,"維基媒體":14528,"轉移到":14529,"交界處":14530,"探險家":14531,"阿爾卑斯山":14532,"廉政公署":14533,"大韓民國":14534,"銅鑼灣":14535,"568":14536,"659":14537,"ba":14538,"ow":14539,"一大":14540,"不易":14541,"不屬於":14542,"中小":14543,"人事":14544,"位在":14545,"使徒":14546,"促成":14547,"們的":14548,"傳到":14549,"八大":14550,"凱爾特":14551,"制裁":14552,"反覆":14553,"哈達":14554,"四人":14555,"塔尼亞":14556,"士威":14557,"大和":14558,"天後":14559,"太極":14560,"官兵":14561,"家康":14562,"容祖兒":14563,"局的":14564,"平息":14565,"或許":14566,"掌管":14567,"提前":14568,"是唯一":14569,"晚年":14570,"月的":14571,"有大量":14572,"服裝":14573,"梅隆":14574,"歐陸":14575,"民法":14576,"沒收":14577,"沙咀":14578,"河內":14579,"波多":14580,"洪水":14581,"淮河":14582,"港英":14583,"滿意":14584,"照片":14585,"牧場":14586,"甲午":14587,"的獨立":14588,"的改變":14589,"的身份":14590,"示範":14591,"社群":14592,"節奏":14593,"籃球":14594,"索不達":14595,"編碼":14596,"自給":14597,"與南":14598,"藉助":14599,"被列為":14600,"評選":14601,"這條":14602,"進士":14603,"錄音":14604,"鎮的":14605,"開元":14606,"開除":14607,"電場":14608,"響應":14609,"齊齊":14610,"什麼事情":14611,"香港仔":14612,"以及在":14613,"臺灣人":14614,"教育的":14615,"革命的":14616,"已經有":14617,"的大氣":14618,"雖然在":14619,"自然的":14620,"自治領":14621,"全球資訊網":14622,"太陽的":14623,"最終在":14624,"1889年":14625,"建設的":14626,"完成的":14627,"馬克士威":14628,"阿爾泰":14629,"紀念碑":14630,"是哪一國的":14631,"建造的":14632,"中國人民政治協商會議":14633,"巴爾的摩":14634,"戰俘營":14635,"大氣層":14636,"吉林省":14637,"紐澤西州":14638,"怎麼樣的":14639,"解析度":14640,"千葉縣":14641,"專員公署":14642,"被任命為":14643,"薩摩亞":14644,"路面電車":14645,"穆罕默德":14646,"哈得孫":14647,"標記式語言":14648,"埃涅阿斯":14649,"取決於":14650,"張作霖":14651,"捷克斯洛伐克":14652,"核醣核酸":14653,"424":14654,"一塊":14655,"三人":14656,"不佳":14657,"了他":14658,"京杭":14659,"人也":14660,"仁川":14661,"以下的":14662,"件事":14663,"佛像":14664,"優越":14665,"其所":14666,"其間":14667,"則爲":14668,"前線":14669,"動植物":14670,"十一年":14671,"受精":14672,"司長":14673,"噶爾":14674,"坦尚":14675,"場比賽":14676,"境外":14677,"增至":14678,"學金":14679,"官吏":14680,"展現":14681,"建交":14682,"後勤":14683,"心房":14684,"忽略":14685,"愛琴":14686,"戰士":14687,"戰火":14688,"戶口":14689,"房間":14690,"手工業":14691,"拓展":14692,"捐贈":14693,"放送":14694,"故居":14695,"是本":14696,"是哪個":14697,"景區":14698,"晶片":14699,"有別":14700,"標籤":14701,"次數":14702,"津輕":14703,"湖人":14704,"漢藏":14705,"潮汕":14706,"瀕危":14707,"為日本":14708,"玄武":14709,"的文字":14710,"的情形":14711,"碩士":14712,"福臨":14713,"第1":14714,"等多":14715,"罷免":14716,"美金":14717,"聖多明":14718,"肉眼":14719,"致使":14720,"董卓":14721,"蔡同":14722,"要塞":14723,"誰為":14724,"貨櫃":14725,"逃往":14726,"速率":14727,"造型":14728,"連同":14729,"遍及":14730,"部下":14731,"開支":14732,"陽明":14733,"類動物":14734,"駐守":14735,"2013":14736,"世界第一":14737,"可以將":14738,"可以從":14739,"哪一個國家的":14740,"文化中心":14741,"其他地區":14742,"歷史的":14743,"帝國主義":14744,"羅馬字":14745,"504":14746,"586":14747,"韓國國軍":14748,"553":14749,"555":14750,"事件後":14751,"細胞膜":14752,"通常會":14753,"1894年":14754,"半島的":14755,"爆發了":14756,"服務的":14757,"取得勝利":14758,"大多數的":14759,"奧運會的":14760,"唐朝的":14761,"航空母艦":14762,"的特性":14763,"中共中央政治局":14764,"國務院總理":14765,"簽署了":14766,"會員國":14767,"轉變為":14768,"另一種是":14769,"反法同盟":14770,"伊比利亞":14771,"季後賽":14772,"坦尚尼亞":14773,"435":14774,"567":14775,"657":14776,"6000":14777,"一層":14778,"不需要":14779,"中的一":14780,"中後期":14781,"了多少":14782,"便於":14783,"元老":14784,"公投":14785,"半部":14786,"即可":14787,"吳國":14788,"周口":14789,"和談":14790,"和國家":14791,"和研究":14792,"喜愛":14793,"回族":14794,"在社會":14795,"地上":14796,"大部":14797,"大陳":14798,"契約":14799,"女性的":14800,"委書記":14801,"媒體的":14802,"宜興":14803,"富豪":14804,"專案":14805,"小亞細亞":14806,"履行":14807,"底特":14808,"彈性":14809,"性生殖":14810,"愛好":14811,"擅長":14812,"敦煌":14813,"文理":14814,"新政府":14815,"新石器時代":14816,"日內":14817,"星際":14818,"是國家":14819,"更大":14820,"柔佛":14821,"柴油":14822,"樹木":14823,"機動":14824,"水上":14825,"活性":14826,"液態":14827,"火炮":14828,"為香港":14829,"爵位":14830,"發光":14831,"發源地":14832,"的無":14833,"的行動":14834,"的物種":14835,"硫化":14836,"碳酸":14837,"神的":14838,"筆畫":14839,"約束":14840,"納的":14841,"維吾爾":14842,"縮短":14843,"義勇軍":14844,"老師":14845,"而成為":14846,"聚合":14847,"能量的":14848,"著有":14849,"蒙兀":14850,"被誰":14851,"西周":14852,"觀看":14853,"評審":14854,"該州":14855,"貫穿":14856,"趨向":14857,"造就":14858,"邦的":14859,"重大的":14860,"長久":14861,"雅各":14862,"非營利":14863,"養殖":14864,"魁北":14865,"點是":14866,"主要包括":14867,"日本在":14868,"第一支":14869,"法國人":14870,"491":14871,"493":14872,"是在哪一個":14873,"單位制":14874,"舉行了":14875,"藝術的":14876,"倫敦政經":14877,"10月1日":14878,"西方的":14879,"憲法規定":14880,"足球隊":14881,"各地的":14882,"古典力學":14883,"恢復了":14884,"一帶的":14885,"耶穌的":14886,"沿海地區":14887,"混合動力":14888,"第六次":14889,"威爾遜":14890,"光緒帝":14891,"全體會議":14892,"總司令部":14893,"認識到":14894,"金正日":14895,"師範學校":14896,"康熙帝":14897,"割讓給":14898,"大乘佛教":14899,"頒獎典禮":14900,"皮特肯":14901,"開發中國家":14902,"蔡同榮":14903,"底特律":14904,"..":14905,"428":14906,"4世紀":14907,"℃。":14908,"一張":14909,"一類":14910,"不敢":14911,"丘吉爾":14912,"二五":14913,"五百":14914,"交響":14915,"人及":14916,"元件":14917,"兵團":14918,"冰雹":14919,"凌晨":14920,"出家":14921,"分享":14922,"刑事":14923,"刺殺":14924,"動態":14925,"十餘":14926,"南越":14927,"史克威爾":14928,"和政府":14929,"啤酒":14930,"喇嘛":14931,"單元":14932,"單純":14933,"嘉定":14934,"國教":14935,"圓形":14936,"執政黨":14937,"堡壘":14938,"大街":14939,"大總統":14940,"奇蹟":14941,"將來":14942,"小於":14943,"就開始":14944,"幺點":14945,"必需":14946,"恐慌":14947,"懷孕":14948,"擴散":14949,"整頓":14950,"旗幟":14951,"日期":14952,"是要":14953,"普羅":14954,"更好的":14955,"有很大的":14956,"東面":14957,"沿著":14958,"溶液":14959,"漢城":14960,"澤民":14961,"瀑布":14962,"為人":14963,"無所":14964,"無數":14965,"燕京":14966,"用語":14967,"由英國":14968,"白俄羅斯":14969,"的改革":14970,"的球隊":14971,"相較":14972,"省轄市":14973,"私營":14974,"精密":14975,"細節":14976,"總局":14977,"羅曼":14978,"者在":14979,"見證":14980,"訂立":14981,"負面":14982,"賠償":14983,"轉為":14984,"錄影":14985,"飽和":14986,"香港總督":14987,"經濟技術":14988,"其他地方":14989,"系統中":14990,"發生於":14991,"可能性":14992,"政策的":14993,"但是由於":14994,"決定將":14995,"最大的城市":14996,"交通樞紐":14997,"主席團":14998,"資源豐富":14999,"外交關係":15000,"設置了":15001,"在2008年":15002,"意義的":15003,"召開的":15004,"的原因是":15005,"山東省":15006,"荃灣區":15007,"華納兄弟":15008,"風景名勝":15009,"安德魯":15010,"轉化為":15011,"摩爾多瓦":15012,"清史稿":15013,"三八線":15014,"軸心國":15015,"伏爾加":15016,"歷史最悠久":15017,"索不達米亞":15018,"410":15019,"431":15020,"432":15021,"669":15022,"667":15023,"不敵":15024,"仍舊":15025,"何者":15026,"依舊":15027,"倫理學":15028,"傳導":15029,"億年前":15030,"光線":15031,"兵器":15032,"其在":15033,"利比亞":15034,"則會":15035,"前夕":15036,"劃入":15037,"劇院":15038,"加熱":15039,"加盟":15040,"升高":15041,"可延伸":15042,"和印度":15043,"哥白":15044,"唐太宗":15045,"國泰":15046,"在海":15047,"在的":15048,"在這種":15049,"城中":15050,"大型的":15051,"字典":15052,"就職":15053,"尺寸":15054,"尼伯":15055,"巡洋":15056,"幾歲":15057,"後在":15058,"後方":15059,"後續":15060,"復甦":15061,"恩斯":15062,"所使用的":15063,"才被":15064,"新技術":15065,"是透過":15066,"是於西元幾年":15067,"更高":15068,"某一":15069,"模特":15070,"歐陽":15071,"此前":15072,"每小時":15073,"民選":15074,"沈丘":15075,"河與":15076,"清洗":15077,"湘軍":15078,"無條件":15079,"特派":15080,"獎得主":15081,"的工業":15082,"督察":15083,"確切":15084,"禪宗":15085,"租界":15086,"答臘":15087,"粒子的":15088,"紐倫堡":15089,"縣內":15090,"罪行":15091,"老年":15092,"聖母":15093,"胚胎":15094,"自發":15095,"英美":15096,"菸草":15097,"薩拉":15098,"蛋糕":15099,"讀書":15100,"貝里斯":15101,"費城":15102,"身亡":15103,"遼闊":15104,"部件":15105,"重複":15106,"鎮江":15107,"雛形":15108,"什麼物質":15109,"經濟大":15110,"人口比例":15111,"進行曲":15112,"影響到":15113,"共和國的":15114,"沒有任何":15115,"哪個城市":15116,"587":15117,"生物多樣性":15118,"目前有":15119,"8月15日":15120,"居民的":15121,"不斷的":15122,"西南官話":15123,"國務院批准":15124,"競爭對手":15125,"理工學院":15126,"征服了":15127,"種類的":15128,"最低氣溫":15129,"波斯灣":15130,"匯豐銀行":15131,"哪位皇帝":15132,"珍珠港":15133,"歐亞大陸":15134,"中書省":15135,"馬紹爾群島":15136,"度量衡":15137,"去氧核醣核酸":15138,"研究型大學":15139,"哥白尼":15140,"419":15141,"415":15142,"423":15143,"os":15144,"三面":15145,"上與":15146,"下滑":15147,"不知":15148,"不允許":15149,"也就":15150,"了不少":15151,"京師":15152,"人心":15153,"但有":15154,"何年":15155,"使之":15156,"倫西亞":15157,"偏向":15158,"入海":15159,"八路軍":15160,"公使":15161,"六四":15162,"共價":15163,"卡羅":15164,"又以":15165,"史密":15166,"合適":15167,"同學":15168,"命運":15169,"哥羅":15170,"國和":15171,"土木":15172,"在二戰":15173,"大汗":15174,"天安":15175,"太原":15176,"媒介":15177,"宗室":15178,"定於":15179,"屏東":15180,"帝汶":15181,"弗朗":15182,"後開始":15183,"後不久":15184,"御史":15185,"戰機":15186,"抵禦":15187,"拯救":15188,"接下來":15189,"教士":15190,"教導":15191,"明亮":15192,"是法國":15193,"最偉大的":15194,"會使用":15195,"有不同":15196,"東岸":15197,"東臨":15198,"每秒":15199,"法人":15200,"泛指":15201,"流體":15202,"滿族":15203,"瀋陽":15204,"為美國":15205,"獵物":15206,"現狀":15207,"產地":15208,"發掘":15209,"的山":15210,"的法國":15211,"的藝術":15212,"的發明":15213,"的擴張":15214,"的命令":15215,"的邊界":15216,"皆為":15217,"益州":15218,"省長":15219,"眼睛":15220,"祭司":15221,"第2":15222,"紫外線":15223,"總經理":15224,"股權":15225,"自願":15226,"茲堡":15227,"衰弱":15228,"袁紹":15229,"訊息":15230,"警告":15231,"議事":15232,"貞觀":15233,"貸款":15234,"躍進":15235,"較多的":15236,"輝煌":15237,"追隨":15238,"連線":15239,"違法":15240,"遜尼":15241,"都必須":15242,"金牌":15243,"金錢":15244,"金額":15245,"阿勒":15246,"降雪":15247,"飼養":15248,"馬達":15249,"體重":15250,"高盧":15251,"1910年":15252,"1920年代":15253,"國家圖書館":15254,"主要集中在":15255,"中央電視台":15256,"中央集權":15257,"582":15258,"588":15259,"556":15260,"1893年":15261,"564":15262,"增加值":15263,"毛澤東的":15264,"商業區":15265,"1861年":15266,"公共電視":15267,"足球賽":15268,"經常被":15269,"性質的":15270,"意思是":15271,"皇家海軍":15272,"紡織業":15273,"野生動物":15274,"金磚四國":15275,"遊牧民族":15276,"辦事處":15277,"康有為":15278,"王守仁":15279,"哈得孫灣":15280,"414":15281,"660":15282,"7世紀":15283,"IS":15284,"ch":15285,"一組":15286,"一面":15287,"一書中":15288,"不像":15289,"不太":15290,"不安":15291,"並通過":15292,"中南":15293,"九廣鐵路":15294,"了大量":15295,"作了":15296,"侖茲":15297,"便宜":15298,"兩千":15299,"動工":15300,"勞侖茲":15301,"北周":15302,"半葉":15303,"南島":15304,"友誼":15305,"口徑":15306,"古騰堡":15307,"史詩":15308,"哥德":15309,"喀山":15310,"國定":15311,"在洛陽":15312,"增多":15313,"壓迫":15314,"多於":15315,"大舉":15316,"夫婦":15317,"奧蘭":15318,"妃嬪":15319,"子孫":15320,"安納":15321,"小島":15322,"居留":15323,"帖木":15324,"座標":15325,"弗蘭":15326,"弟子":15327,"強化":15328,"強國":15329,"很高的":15330,"徽宗":15331,"心室":15332,"戰前":15333,"所說":15334,"抑制":15335,"拉罕":15336,"指的":15337,"振動":15338,"搬到":15339,"收到":15340,"放任":15341,"施加":15342,"早於":15343,"明尼":15344,"普爾":15345,"格斯":15346,"歌舞":15347,"水和":15348,"水嶺":15349,"江澤民":15350,"洗禮":15351,"海森堡":15352,"清真寺":15353,"溧陽":15354,"演變成":15355,"甘比亞":15356,"留學生":15357,"的氣候":15358,"的唯一":15359,"直播":15360,"看來":15361,"穩固":15362,"立體":15363,"答應":15364,"約旦":15365,"納德":15366,"經合":15367,"總站":15368,"老人":15369,"聲調":15370,"腐蝕":15371,"荷馬":15372,"萊塢":15373,"蒂安":15374,"談話":15375,"近似":15376,"重創":15377,"開來":15378,"防線":15379,"類比":15380,"首的":15381,"高考":15382,"12世紀":15383,"政府機構":15384,"開始對":15385,"以及哪一":15386,"部分的":15387,"的一半":15388,"585":15389,"一般是":15390,"支持的":15391,"最高人民":15392,"的大量":15393,"551":15394,"554":15395,"交通工具":15396,"結束時":15397,"當地人":15398,"1888年":15399,"立法機構":15400,"合併為":15401,"數量的":15402,"是以什麼":15403,"執行長":15404,"在2012年":15405,"文明的":15406,"耶穌基督":15407,"葡萄糖":15408,"引起的":15409,"四川大學":15410,"九龍半島":15411,"有所不同":15412,"也就是說":15413,"潮州話":15414,"關東軍":15415,"光緒二十":15416,"必要的":15417,"簡化字":15418,"民主主義人民共和國":15419,"青銅器":15420,"窩闊台":15421,"野戰軍":15422,"沙烏地阿拉伯":15423,"柯林頓":15424,"魁北克":15425,"413":15426,"870":15427,"911":15428,"St":15429,"of":15430,"一屆":15431,"一萬":15432,"一間":15433,"下屬":15434,"不合":15435,"世宗":15436,"也要":15437,"京滬":15438,"以至":15439,"伊犁":15440,"伴隨著":15441,"佔地":15442,"修院":15443,"億噸":15444,"兩黨":15445,"公分":15446,"公衆":15447,"六大":15448,"六部":15449,"六零":15450,"兼併":15451,"利的":15452,"制憲":15453,"剝奪":15454,"加劇":15455,"北半球":15456,"升為":15457,"南韓":15458,"原為":15459,"哪國":15460,"喀什":15461,"四庫":15462,"圖西":15463,"在古":15464,"在當地":15465,"地藏":15466,"培育":15467,"外籍":15468,"多有":15469,"大王":15470,"大略":15471,"大紀元":15472,"大腸桿菌":15473,"女神":15474,"定理":15475,"對他":15476,"市和":15477,"廠商":15478,"建校":15479,"後現代主義":15480,"慘重":15481,"戰中":15482,"承受":15483,"捐款":15484,"推崇":15485,"支球隊":15486,"敏感":15487,"文斯":15488,"曲線":15489,"會面":15490,"會因為":15491,"會發生":15492,"本書中":15493,"格拉斯":15494,"檢測":15495,"水師":15496,"漁民":15497,"激戰":15498,"激素":15499,"照顧":15500,"熱能":15501,"率為":15502,"珍貴":15503,"現已":15504,"疊紀":15505,"白銀":15506,"的代":15507,"的古":15508,"的名":15509,"的行":15510,"的哪個":15511,"的第一個":15512,"的需求":15513,"相機":15514,"約占":15515,"索比亞":15516,"縣治":15517,"總計":15518,"繁多":15519,"羅伯":15520,"美索不達米亞":15521,"與發展":15522,"草書":15523,"衛兵":15524,"西邊":15525,"見到":15526,"規定的":15527,"載具":15528,"農場":15529,"逼迫":15530,"遍布":15531,"醫藥":15532,"金剛":15533,"鑑於":15534,"開埠":15535,"隨機":15536,"雌性":15537,"領主":15538,"首要":15539,"鳥取":15540,"麵粉":15541,"黨團":15542,"哪一國家":15543,"開始使用":15544,"經濟增長":15545,"文化與":15546,"羅馬天主教":15547,"的一部份":15548,"第二大的":15549,"工業和":15550,"獨立於":15551,"電視劇":15552,"朝鮮民主主義人民共和國":15553,"目前的":15554,"生活中":15555,"自治政府":15556,"特別的":15557,"分別爲":15558,"基督教會":15559,"國內外":15560,"1882年":15561,"1875年":15562,"二十四":15563,"境內有":15564,"咖啡的":15565,"在2014年":15566,"第四屆":15567,"繼承了":15568,"十二年":15569,"中國人民志願軍":15570,"幫助下":15571,"延伸至":15572,"在什麼時間":15573,"人文主義":15574,"馬拉雅":15575,"戰國時期":15576,"波士頓":15577,"多瑙河":15578,"巡洋艦":15579,"%、":15580,"22年":15581,"760":15582,"li":15583,"ou":15584,"一線":15585,"三權分立":15586,"不等":15587,"中方":15588,"主演":15589,"九一":15590,"二個":15591,"五千":15592,"亞特蘭":15593,"伊士":15594,"使命":15595,"光合":15596,"兩廣":15597,"兩棲":15598,"化學家":15599,"南面":15600,"合肥":15601,"哥爾摩":15602,"四零":15603,"回答":15604,"在東":15605,"在不同":15606,"在公元":15607,"在整個":15608,"在紐約":15609,"塞薩洛":15610,"壓制":15611,"壯族":15612,"多以":15613,"多雨":15614,"奈及利亞":15615,"好萊塢":15616,"婆羅":15617,"寒武":15618,"察合":15619,"導火":15620,"州為":15621,"建城":15622,"得分":15623,"捕魚":15624,"採訪":15625,"握拍":15626,"故鄉":15627,"敘述":15628,"文法":15629,"昂貴":15630,"是全":15631,"是使用":15632,"時段":15633,"曼島":15634,"會導致":15635,"有幾個":15636,"條規定":15637,"權限":15638,"次日":15639,"死傷":15640,"沙俄":15641,"淪陷":15642,"清初":15643,"渠道":15644,"湯瑪斯":15645,"溫尼伯":15646,"漢文":15647,"營業":15648,"牙科":15649,"王公":15650,"當成":15651,"當日":15652,"當中的":15653,"病毒":15654,"的天":15655,"的許多":15656,"的解釋":15657,"的稱呼":15658,"皇太子":15659,"短期":15660,"硬幣":15661,"祥地":15662,"舉動":15663,"花粉":15664,"蓋爾":15665,"衣索比亞":15666,"裁判":15667,"裔美國人":15668,"補助":15669,"製的":15670,"西面":15671,"西柏林":15672,"詮釋":15673,"護照":15674,"贊同":15675,"贖罪":15676,"路軌":15677,"那時":15678,"部族":15679,"鎮守":15680,"開國":15681,"電機":15682,"1400":15683,"政府對":15684,"以及哪種":15685,"哪一個單位":15686,"第一任":15687,"第一座":15688,"第一張":15689,"發展了":15690,"發展到":15691,"由於哪個":15692,"成為中國":15693,"政治部":15694,"其他國家":15695,"全國人口普查":15696,"581":15697,"583":15698,"作為一個":15699,"574":15700,"552":15701,"全球氣候":15702,"甚至是":15703,"廣播電臺":15704,"列寧的":15705,"立法會":15706,"立法權":15707,"減少了":15708,"以前的":15709,"司令員":15710,"貨幣基金":15711,"的主流":15712,"工人階級":15713,"制定了":15714,"新竹市":15715,"現實主義":15716,"年輕人":15717,"貴州省":15718,"的控制權":15719,"蒙特內":15720,"後金軍":15721,"神奈川縣":15722,"蘇門答臘":15723,"京杭大運河":15724,"共價鍵":15725,"遜尼派":15726,"帖木兒":15727,"434":15728,"438":15729,"丈夫":15730,"上將":15731,"並向":15732,"中古":15733,"中游":15734,"也包括":15735,"了他的":15736,"互助":15737,"交叉":15738,"仍未":15739,"但後來":15740,"來講":15741,"傀儡":15742,"儒略":15743,"優良":15744,"先驅":15745,"克遜":15746,"入選":15747,"八卦":15748,"六世":15749,"初級":15750,"半徑":15751,"各族":15752,"吳三":15753,"和外":15754,"商場":15755,"固態":15756,"國之":15757,"國慶":15758,"基準":15759,"士官":15760,"多半":15761,"夜間":15762,"大肆":15763,"大衆":15764,"安提":15765,"宣揚":15766,"宣誓":15767,"家鄉":15768,"專修":15769,"專屬":15770,"尊氏":15771,"尺度":15772,"山等":15773,"州和":15774,"平江":15775,"弗拉":15776,"恐龍":15777,"所產生的":15778,"指向":15779,"接下來的":15780,"提取":15781,"政協":15782,"新增":15783,"方形":15784,"施特拉":15785,"暫停":15786,"更改":15787,"最常見的":15788,"東站":15789,"格雷":15790,"極力":15791,"樂壇":15792,"武王":15793,"民權":15794,"水資源":15795,"沒落":15796,"河洛":15797,"河畔":15798,"法則":15799,"海倫":15800,"準則":15801,"演義":15802,"漢獻帝":15803,"爲基礎":15804,"狄托":15805,"留下的":15806,"白堊":15807,"的最大":15808,"的報告":15809,"的象徵":15810,"祕書":15811,"祖父":15812,"神社":15813,"票房":15814,"科目":15815,"窗口":15816,"等問題":15817,"簡稱為":15818,"約1":15819,"統稱為":15820,"總管":15821,"總量":15822,"考證":15823,"而已":15824,"耶克":15825,"胎兒":15826,"菌門":15827,"蒙德":15828,"衣服":15829,"被視爲":15830,"視星等":15831,"評為":15832,"該公司":15833,"說話":15834,"變動":15835,"變的":15836,"起伏":15837,"軍階":15838,"透明":15839,"道士":15840,"達摩":15841,"重返":15842,"雄性":15843,"顆粒":15844,"％。":15845,"1300":15846,"日本投降":15847,"重要地位":15848,"科學方法":15849,"的一支":15850,"的一段":15851,"的一系列":15852,"全國的":15853,"全國重點":15854,"589":15855,"576":15856,"最後的":15857,"中華民國總統":15858,"具有什麼":15859,"環境的":15860,"佛教藝術":15861,"全球化":15862,"音樂家":15863,"範圍內的":15864,"擔任了":15865,"1865年":15866,"1867年":15867,"是一座":15868,"共同體":15869,"居住的":15870,"的一個縣":15871,"1840年":15872,"司令官":15873,"體育館":15874,"在這段":15875,"是哪一個國家的":15876,"吉爾吉斯":15877,"19世紀末":15878,"客家話":15879,"飛行員":15880,"空氣中":15881,"兩年後":15882,"攝氏度":15883,"銀河系":15884,"新南威爾斯":15885,"斯德哥爾摩":15886,"秋明州":15887,"浸信會":15888,"平埔族":15889,"中國科學技術大學":15890,"NHL":15891,"什葉派":15892,"天安門":15893,"%。\",":15894,"412":15895,"425":15896,"5世紀":15897,"EC":15898,"ad":15899,"》《":15900,"三十年":15901,"不哥":15902,"中哪一個":15903,"也都":15904,"了當時":15905,"五四":15906,"五胡":15907,"人道":15908,"他於":15909,"位處":15910,"偶爾":15911,"內亂":15912,"八國":15913,"六七":15914,"凝結":15915,"分工":15916,"到底":15917,"前秦":15918,"匹茲堡":15919,"南邊":15920,"原生":15921,"又名":15922,"古稱":15923,"可供":15924,"台地":15925,"和對":15926,"和一些":15927,"堅固":15928,"報章":15929,"大片":15930,"天災":15931,"奠定":15932,"守門":15933,"害怕":15934,"將在":15935,"專賣":15936,"對日本":15937,"就要":15938,"希略":15939,"幾位":15940,"底片":15941,"建有":15942,"影視":15943,"承襲":15944,"指派":15945,"推導":15946,"效益":15947,"早上":15948,"明星":15949,"是印度":15950,"木斯克":15951,"此類":15952,"民用":15953,"江淮":15954,"河源":15955,"沸點":15956,"清水":15957,"港灣":15958,"漕運":15959,"獎的":15960,"率的":15961,"的功":15962,"的好":15963,"的微":15964,"的那":15965,"的香港":15966,"的溫度":15967,"的能力":15968,"的職位":15969,"看起來":15970,"眾多的":15971,"第4":15972,"紋章":15973,"紛爭":15974,"終點":15975,"者是":15976,"而沒有":15977,"而形成":15978,"聲譽":15979,"與李":15980,"船舶":15981,"蓮花":15982,"藉口":15983,"蘇軍":15984,"號的":15985,"號決議":15986,"衙門":15987,"被動":15988,"被列入":15989,"誰認為":15990,"起的":15991,"軍政府":15992,"農耕":15993,"迪南":15994,"這場戰爭":15995,"通婚":15996,"部作品":15997,"鐵木":15998,"門戶":15999,"防務":16000,"霜期":16001,"韓語":16002,"頂尖":16003,"香山":16004,"馬可":16005,"可以透過":16006,"城市和":16007,"代表性的":16008,"科學與":16009,"臺灣總督府":16010,"自由主義者":16011,"語言學":16012,"聯合聲明":16013,"已經成為":16014,"獲得的":16015,"細胞壁":16016,"基本的":16017,"的原理":16018,"然而在":16019,"西班牙的":16020,"此外還有":16021,"化學反應":16022,"比賽項目":16023,"伊斯蘭國":16024,"在2002年":16025,"實現了":16026,"失敗後":16027,"宋朝的":16028,"馬克思列寧主義":16029,"在哪一年時被":16030,"翻譯成":16031,"氣體交換":16032,"很快就":16033,"注意的是":16034,"週期表":16035,"今日的":16036,"阿里巴巴":16037,"探測器":16038,"廈門大學":16039,"英法聯軍":16040,"改制為":16041,"作曲家":16042,"瀏覽器":16043,"樞密院":16044,"雷克雅":16045,"蒙特內哥羅":16046,"50年代":16047,"7個":16048,"780":16049,"9個":16050,"ed":16051,"七零":16052,"中南部":16053,"他和":16054,"伺服":16055,"佛經":16056,"供給":16057,"保安":16058,"停靠":16059,"光速":16060,"免疫":16061,"八零":16062,"共生":16063,"具體的":16064,"典範":16065,"出去":16066,"削減":16067,"加快":16068,"北非":16069,"南華":16070,"原核":16071,"口語":16072,"只好":16073,"只剩下":16074,"史以來":16075,"各式":16076,"吉祥":16077,"告終":16078,"商船":16079,"啟動":16080,"在外":16081,"在野":16082,"在國內":16083,"大明":16084,"始建於":16085,"子公司":16086,"孢子":16087,"學名":16088,"學研究":16089,"察加":16090,"局部":16091,"屢次":16092,"布尼":16093,"席次":16094,"平行":16095,"幾年的":16096,"很容易":16097,"德蘭":16098,"心說":16099,"忠誠":16100,"忽視":16101,"慣例":16102,"折射":16103,"改建":16104,"放大":16105,"文學家":16106,"方位":16107,"施工":16108,"是非常":16109,"時數":16110,"有兩種":16111,"東邊":16112,"步驟":16113,"歸於":16114,"死刑":16115,"永樂":16116,"法學院":16117,"波耳":16118,"洛桑":16119,"湄公":16120,"父子":16121,"牙醫":16122,"特的":16123,"用法":16124,"用漢字":16125,"的需要":16126,"的表現":16127,"的來源":16128,"的狀況":16129,"皇宮":16130,"直選":16131,"禁令":16132,"縱橫":16133,"總指揮":16134,"者為":16135,"聚落":16136,"股市":16137,"腓力":16138,"與政治":16139,"苗栗":16140,"著重":16141,"藥劑":16142,"蘭州":16143,"裁撤":16144,"詢問":16145,"較早":16146,"轉乘":16147,"近期":16148,"配子":16149,"陣地":16150,"電訊":16151,"青浦":16152,"顯得":16153,"駕崩":16154,"鬼鎮":16155,"鮭魚":16156,"黨委":16157,"2012":16158,"政府和":16159,"政治制度":16160,"代表作":16161,"建立在":16162,"他們認為":16163,"這個名稱":16164,"理論中":16165,"這一概念":16166,"控制權":16167,"議會制":16168,"發表聲明":16169,"開發的":16170,"1881年":16171,"1885年":16172,"1878年":16173,"南京條約":16174,"是一所":16175,"社會主義共和國":16176,"執行委員會":16177,"著作中":16178,"解決了":16179,"迅速發展":16180,"意識到":16181,"強烈反對":16182,"稱之爲":16183,"越來越多":16184,"喬治亞州":16185,"顯著的":16186,"奧古斯丁":16187,"警務處":16188,"工農紅軍":16189,"立方米":16190,"威斯康":16191,"專注於":16192,"摩托羅拉":16193,"胡志明市":16194,"日內瓦":16195,"蒙兀兒":16196,"白堊紀":16197,"守門員":16198,"427":16199,"429":16200,"440":16201,"422":16202,"868":16203,"BM":16204,"im":16205,"一律":16206,"下台":16207,"不便":16208,"不應":16209,"世族":16210,"之事":16211,"之人":16212,"之城":16213,"交往":16214,"他又":16215,"伊兒":16216,"你們":16217,"侵襲":16218,"傳染":16219,"光復":16220,"光電":16221,"兩部分":16222,"到訪":16223,"北岸":16224,"北歐":16225,"卻被":16226,"只在":16227,"可分爲":16228,"史前":16229,"司機":16230,"各界":16231,"和無":16232,"和香港":16233,"嚴密":16234,"國都":16235,"圖林根":16236,"在清朝":16237,"在義大利":16238,"在亞洲":16239,"在公元前":16240,"地級市":16241,"坐標":16242,"基隆":16243,"塔克":16244,"大同":16245,"大肚":16246,"大躍進":16247,"客機":16248,"尚有":16249,"巴布":16250,"強硬":16251,"後醍醐天皇":16252,"得票":16253,"心靈":16254,"急劇":16255,"慘敗":16256,"懲罰":16257,"戰的":16258,"所採用":16259,"手槍":16260,"才開始":16261,"托洛":16262,"指南":16263,"放電":16264,"政事":16265,"斯圖":16266,"於是在":16267,"旗下的":16268,"是目前":16269,"是全球":16270,"暨太空總署":16271,"暴露":16272,"更有":16273,"最北":16274,"最新":16275,"最重要":16276,"會使":16277,"本州":16278,"樣式":16279,"歸入":16280,"水量":16281,"江陵":16282,"法拉":16283,"浪潮":16284,"熙寧":16285,"特質":16286,"犧牲":16287,"的發現":16288,"皇族":16289,"石頭":16290,"禮拜":16291,"突擊":16292,"節慶":16293,"紅磡":16294,"素有":16295,"給他":16296,"統稱":16297,"統領":16298,"經文":16299,"綠地":16300,"總共有":16301,"羽毛":16302,"耕種":16303,"與社會":16304,"若望":16305,"菩提":16306,"落在":16307,"親戚":16308,"該區":16309,"該市的":16310,"講述":16311,"讓人":16312,"超音":16313,"迴歸":16314,"這一個":16315,"過後":16316,"醜聞":16317,"里奧":16318,"開會":16319,"陶瓷":16320,"陸戰":16321,"電器":16322,"青春":16323,"鴨綠":16324,"黨部":16325,"1600":16326,"經濟活動":16327,"英國殖民地":16328,"政治體制":16329,"1950":16330,"在哪一年之後":16331,"民主制":16332,"是在什麼時候":16333,"572":16334,"563":16335,"爆發的":16336,"毛澤東在":16337,"商業中心":16338,"1884年":16339,"東南沿海":16340,"指的是什麼":16341,"製造的":16342,"出版了":16343,"都市計畫":16344,"太空載具":16345,"投票制":16346,"幾乎沒有":16347,"於何年成立":16348,"原子序":16349,"航空暨太空總署":16350,"百分之九":16351,"1848年":16352,"中國共產黨中央委員會":16353,"加拿大的":16354,"古希臘的":16355,"夏季奧運會":16356,"哥倫布":16357,"構成了":16358,"對應的":16359,"克里米亞":16360,"檔案館":16361,"的地理位置":16362,"千島群島":16363,"坐落於":16364,"百分比":16365,"加薩走廊":16366,"沖積平原":16367,"清華大學":16368,"心血管疾病":16369,"愛琴海":16370,"聖多明哥":16371,"塞薩洛尼基":16372,"2億":16373,"426":16374,"5億":16375,"ab":16376,"一樣的":16377,"七世":16378,"上也":16379,"上台":16380,"不當":16381,"不管":16382,"世代":16383,"並用":16384,"並成為":16385,"之說":16386,"了在":16387,"交涉":16388,"介面":16389,"作出了":16390,"侵蝕":16391,"保健":16392,"假如":16393,"元廷":16394,"先發":16395,"先鋒":16396,"光明":16397,"全軍":16398,"兵庫":16399,"分屬":16400,"制衡":16401,"則與":16402,"動搖":16403,"半總統制":16404,"同情":16405,"名叫":16406,"名稱為":16407,"周朝":16408,"和國際":16409,"四條":16410,"因子":16411,"國時期":16412,"在兩":16413,"在蘇聯":16414,"在倫敦":16415,"型糖尿病":16416,"大火":16417,"大日本帝國":16418,"字形":16419,"對馬":16420,"對香港":16421,"崇禎":16422,"工匠":16423,"已知的":16424,"巴斯":16425,"巴洛克":16426,"巴比倫":16427,"常設":16428,"征伐":16429,"德羅":16430,"恆河":16431,"愛情":16432,"所用的":16433,"撫順":16434,"擊球":16435,"收益":16436,"數十年":16437,"於2008年":16438,"明帝":16439,"有三個":16440,"本草":16441,"栽培":16442,"武宗":16443,"沙爾":16444,"河西":16445,"治國":16446,"洛伊":16447,"派人":16448,"浸禮":16449,"港大":16450,"為1":16451,"為哪種":16452,"營造":16453,"爲中國":16454,"牲畜":16455,"狄奧多":16456,"理查":16457,"異端":16458,"的波":16459,"的印度":16460,"的總統":16461,"的植物":16462,"的各種":16463,"的限制":16464,"的觀念":16465,"皇位":16466,"監事":16467,"看出":16468,"真相":16469,"確定的":16470,"科科":16471,"稱謂":16472,"稻田":16473,"約爲":16474,"考量":16475,"而這些":16476,"萊布尼":16477,"蔓延":16478,"藏書":16479,"藝人":16480,"藻類":16481,"血緣":16482,"西門":16483,"視察":16484,"設定":16485,"賭博":16486,"追擊":16487,"進修":16488,"邁克":16489,"邊海防":16490,"部尚書":16491,"都與":16492,"酒店":16493,"陵墓":16494,"集中的":16495,"雙重":16496,"馬哈拉":16497,"高音":16498,"20萬":16499,"哪一場戰爭":16500,"政府部門":16501,"地區為":16502,"日本國":16503,"人口爲":16504,"研究機構":16505,"重要性":16506,"的一項":16507,"在哪一年爆發":16508,"在哪一年過世":16509,"公里處":16510,"語言學家":16511,"之間有":16512,"問題上":16513,"707":16514,"595":16515,"管理的":16516,"571":16517,"579":16518,"673":16519,"676":16520,"還有什麼":16521,"還有一個":16522,"決定的":16523,"665":16524,"多少年":16525,"651":16526,"人類活動":16527,"第三個":16528,"也有一些":16529,"權力的":16530,"必須要":16531,"1876年":16532,"清朝的":16533,"長期的":16534,"在此之前":16535,"紀念日":16536,"命名爲":16537,"馬克思主義的":16538,"死亡率":16539,"紀錄片":16540,"的成績":16541,"明治維新":16542,"的發源地":16543,"溫帶大陸性":16544,"在那裡":16545,"私有化":16546,"甘肅省":16547,"維京群島":16548,"修道院":16549,"印歐語系":16550,"密西西比":16551,"阿森松島":16552,"洛維尼亞":16553,"海洋性氣候":16554,"阿拉巴馬州":16555,"齊齊哈爾":16556,"義勇軍進行曲":16557,"馬哈拉施特拉":16558,"--":16559,"418":16560,"436":16561,"437":16562,"880":16563,"960":16564,"op":16565,"ri":16566,"世上":16567,"並列":16568,"中西":16569,"乘坐":16570,"也受到":16571,"互不":16572,"亞伯":16573,"交接":16574,"代碼":16575,"你的":16576,"侏羅":16577,"侵入":16578,"優惠":16579,"光子":16580,"克勞":16581,"八十":16582,"公有":16583,"准許":16584,"剛剛":16585,"古今":16586,"合成的":16587,"吉利":16588,"同化":16589,"吠陀":16590,"商務":16591,"喀喇":16592,"喜馬拉雅":16593,"四面":16594,"在軍事":16595,"埃德":16596,"基石":16597,"壯大":16598,"夕法":16599,"天寶":16600,"女皇":16601,"季犛":16602,"宏觀":16603,"尖沙咀":16604,"尼古":16605,"山城":16606,"巨人":16607,"巴嫩":16608,"延吉":16609,"弘前":16610,"後現代":16611,"感應":16612,"懸掛":16613,"所能":16614,"手上":16615,"承辦":16616,"故意":16617,"新式":16618,"於2005年":16619,"是何":16620,"曾為":16621,"會是":16622,"本島":16623,"桂系":16624,"極爲":16625,"極高":16626,"此種":16627,"演習":16628,"為帝":16629,"無霜期":16630,"爭端":16631,"玉祥":16632,"王的":16633,"痕跡":16634,"白山":16635,"的女":16636,"的開始":16637,"的貿易":16638,"的距離":16639,"的性質":16640,"盈利":16641,"相容":16642,"福州":16643,"程車":16644,"穀物":16645,"立刻":16646,"納斯":16647,"羅賓":16648,"聯席":16649,"自旋":16650,"與哪一個":16651,"英超":16652,"蘇達":16653,"製備":16654,"解剖":16655,"警方":16656,"譯本":16657,"財經":16658,"赫茲":16659,"路上":16660,"軍用":16661,"載客":16662,"輕易":16663,"這麼":16664,"通俗":16665,"重心":16666,"附加":16667,"陸上":16668,"陸路":16669,"雅虎":16670,"雷暴":16671,"霸權":16672,"馮玉祥":16673,"政府組織":16674,"由於其":16675,"政治經濟":16676,"的人均":16677,"593":16678,"597":16679,"578":16680,"是由什麼":16681,"領導者":16682,"661":16683,"666":16684,"777":16685,"652":16686,"653":16687,"俄羅斯人":16688,"主教座堂":16689,"殖民統治":16690,"增加到":16691,"4月1日":16692,"西班牙人":16693,"唯一一個":16694,"了一次":16695,"製造廠":16696,"認爲是":16697,"參加了":16698,"人們對":16699,"旅遊城市":16700,"在此期間":16701,"普遍的":16702,"意義上":16703,"大多是":16704,"塞爾柱":16705,"奧斯曼":16706,"之戰中":16707,"合法的":16708,"文藝復興時期":16709,"在位期間":16710,"幾何學":16711,"相反的":16712,"無論是":16713,"先進的":16714,"凡爾賽宮":16715,"科舉制度":16716,"亞太經合":16717,"阿姆斯特":16718,"智慧型手機":16719,"寒武紀":16720,"吳三桂":16721,"鴨綠江":16722,"420":16723,"416":16724,"um":16725,"一週":16726,"一門":16727,"三世紀":16728,"不良":16729,"之多":16730,"也將":16731,"也為":16732,"也許":16733,"二百":16734,"亞門":16735,"享受":16736,"人有":16737,"但他們":16738,"來解釋":16739,"倒幕":16740,"先秦":16741,"內瑞":16742,"全身":16743,"分數":16744,"前方":16745,"力和":16746,"加冕":16747,"卡洛":16748,"各方":16749,"各方面":16750,"同源":16751,"和田":16752,"和一個":16753,"哈布":16754,"唐宋":16755,"商朝":16756,"商貿":16757,"國聯":16758,"在1990年代":16759,"均是":16760,"外資":16761,"大中":16762,"大獎":16763,"奧勒":16764,"妨礙":16765,"委內瑞":16766,"子彈":16767,"學員":16768,"它在":16769,"容許":16770,"屬國":16771,"屬性":16772,"山和":16773,"市內的":16774,"布局":16775,"幺2月":16776,"座部":16777,"式會社":16778,"彌爾":16779,"惠宗":16780,"應對":16781,"招生":16782,"支線":16783,"救濟":16784,"敵對":16785,"斯山脈":16786,"斯洛維尼亞":16787,"新成立的":16788,"曾一度":16789,"替換":16790,"會師":16791,"期望":16792,"村民":16793,"杜爾":16794,"東側":16795,"株式會社":16796,"梅艷":16797,"極度":16798,"洞庭":16799,"流的":16800,"淨土":16801,"無可":16802,"熱力學":16803,"獎學金":16804,"環節":16805,"生代":16806,"由哪一":16807,"由政府":16808,"登山":16809,"的標誌":16810,"相等":16811,"第3":16812,"等因素":16813,"米蘭":16814,"緩和":16815,"繁華":16816,"老子":16817,"而將":16818,"聖保羅":16819,"聽到":16820,"舊約":16821,"葉植物":16822,"蘇伊士":16823,"行走":16824,"觀塘":16825,"謀殺":16826,"讓步":16827,"賓夕法":16828,"賦稅":16829,"賽亞":16830,"起訴":16831,"趨於":16832,"軍種":16833,"進出":16834,"進球":16835,"遊記":16836,"過來":16837,"陰極":16838,"隨時":16839,"隨後的":16840,"電動力學":16841,"飛鳥":16842,"餐廳":16843,"麥馬漢":16844,"黃海":16845,"and":16846,"2020年":16847,"政府軍":16848,"一個新的":16849,"世界文化遺產":16850,"可以用來":16851,"經濟政策":16852,"社會民主":16853,"國際貨幣基金":16854,"成立時":16855,"代表制":16856,"不同的是":16857,"的一大":16858,"臺灣原住民族":16859,"歐洲大陸":16860,"50萬":16861,"已經在":16862,"598":16863,"599":16864,"575":16865,"這一地區":16866,"664":16867,"例如在":16868,"上海站":16869,"第三位":16870,"562":16871,"區域的":16872,"作品的":16873,"不過在":16874,"能夠在":16875,"1874年":16876,"1860年":16877,"大約是":16878,"1859年":16879,"外交部長":16880,"在2011年":16881,"在2016年":16882,"中山大學":16883,"過去的":16884,"金融中心":16885,"當選為":16886,"對外貿易":16887,"本身的":16888,"有人認為":16889,"1821年":16890,"很大程度上":16891,"主導的":16892,"德意志帝國":16893,"流域面積":16894,"大致上":16895,"各自的":16896,"世界盃足球賽":16897,"法蘭克王國":16898,"師範大學":16899,"英屬印度":16900,"ation":16901,"內蒙古自治區":16902,"610辦公室":16903,"支柱產業":16904,"立陶宛":16905,"納米比亞":16906,"埃涅阿斯紀":16907,"湄公河":16908,"委內瑞拉":16909,"梅艷芳":16910,"421":16911,"747":16912,"860":16913,"869":16914,"968":16915,"980":16916,"SC":16917,"》。\",":16918,"一首":16919,"三萬":16920,"不夠":16921,"中俄":16922,"中提到":16923,"也從":16924,"了很多":16925,"二二八":16926,"五角":16927,"交替":16928,"人或":16929,"以爲":16930,"以保護":16931,"份子":16932,"但實際上":16933,"使他":16934,"來臨":16935,"優點":16936,"先知":16937,"入口":16938,"八旗":16939,"公制":16940,"再生":16941,"利堅":16942,"利塔尼亞":16943,"前提":16944,"創業":16945,"加深":16946,"北區":16947,"匱乏":16948,"南至":16949,"南詔":16950,"厄瓜":16951,"可謂":16952,"唐高宗":16953,"國公":16954,"在上":16955,"在羅馬":16956,"在中國的":16957,"地級":16958,"均爲":16959,"堪薩斯州":16960,"多處":16961,"天命":16962,"太多":16963,"央視":16964,"妥協":16965,"安慶":16966,"定格":16967,"小部分":16968,"山上":16969,"川普":16970,"市是中華人民共和國":16971,"年降水量":16972,"廣元":16973,"廬山":16974,"影展":16975,"往後":16976,"征討":16977,"律法":16978,"後果":16979,"復國":16980,"性格":16981,"性能":16982,"意願":16983,"愛沙":16984,"所取代":16985,"所造成的":16986,"托木斯克":16987,"接納":16988,"搭乘":16989,"支出":16990,"放置":16991,"政教":16992,"散射":16993,"文學院":16994,"新區":16995,"於哪":16996,"是第一個":16997,"普斯":16998,"普軍":16999,"更好":17000,"有部分":17001,"未有的":17002,"案例":17003,"檢討":17004,"民變":17005,"水軍":17006,"江浙":17007,"汪精":17008,"沿襲":17009,"海底":17010,"海灘":17011,"淮南":17012,"深海":17013,"溫室":17014,"火衛一":17015,"無限":17016,"煬帝":17017,"留學":17018,"的長":17019,"的比賽":17020,"的天體":17021,"的食物":17022,"的價格":17023,"目錄":17024,"真菌":17025,"祕密":17026,"等待":17027,"等地的":17028,"米高":17029,"翰林":17030,"臨沂":17031,"臨近":17032,"茨克":17033,"華德":17034,"萎縮":17035,"萬有":17036,"蘭經":17037,"表述":17038,"西路":17039,"觀賞":17040,"角的":17041,"設法":17042,"論者":17043,"諸島":17044,"警備":17045,"護航":17046,"賠款":17047,"這位":17048,"配置":17049,"錢塘":17050,"開工":17051,"開花":17052,"關羽":17053,"關條約":17054,"隋煬帝":17055,"餐館":17056,"香蕉":17057,"馬太":17058,"魯國":17059,"ant":17060,"哪一座":17061,"開始被":17062,"開始發展":17063,"開始進行":17064,"開始實施":17065,"政治學":17066,"建立後":17067,"他們是":17068,"中心城市":17069,"發生衝突":17070,"正式成為":17071,"的人權":17072,"獨立後":17073,"706":17074,"現代化的":17075,"多少個":17076,"後來被":17077,"786":17078,"成功地":17079,"阿拉斯加":17080,"於何處":17081,"西方世界":17082,"部隊的":17083,"1866年":17084,"是一部":17085,"機場快":17086,"發動的":17087,"民主黨的":17088,"1856年":17089,"立法機關":17090,"原子的":17091,"分裂為":17092,"初期的":17093,"紐約州":17094,"三國演義":17095,"音節核":17096,"聯賽冠軍":17097,"覆蓋率":17098,"長安城":17099,"越來越多的":17100,"進步黨":17101,"彰化縣":17102,"代謝途徑":17103,"美術館":17104,"陝西省":17105,"慕容垂":17106,"撞擊坑":17107,"內政部":17108,"作業系統":17109,"布蘭登堡":17110,"哈德遜":17111,"伊爾庫":17112,"哈里發":17113,"滾石唱片":17114,"豐臣秀吉":17115,"哈布斯堡":17116,"愛沙尼亞":17117,"411":17118,"ec":17119,"一群":17120,"一黨":17121,"下去":17122,"不需":17123,"中說":17124,"之列":17125,"也無法":17126,"亞種":17127,"亦稱":17128,"京城":17129,"任用":17130,"伯格":17131,"佔百分之":17132,"佛陀":17133,"依法":17134,"信心":17135,"傑出的":17136,"元豐":17137,"光年":17138,"其爲":17139,"分界":17140,"剛果":17141,"北大西洋":17142,"匡胤":17143,"占有":17144,"哪條":17145,"商標":17146,"啓用":17147,"嘉靖":17148,"四平":17149,"固醇":17150,"在家":17151,"在沒有":17152,"在第二次世界大戰":17153,"在17世紀":17154,"均被":17155,"堪察加":17156,"大海":17157,"大維":17158,"天地":17159,"太大":17160,"學制":17161,"學期":17162,"安嶺":17163,"宋真宗":17164,"完備":17165,"家屬":17166,"密爾":17167,"實業":17168,"寮國":17169,"小時的":17170,"布列":17171,"帶著":17172,"常以":17173,"年份":17174,"度過":17175,"庫德":17176,"式建築":17177,"德肋":17178,"怎樣":17179,"抗爭":17180,"拓跋":17181,"收視":17182,"改設":17183,"政司":17184,"於2014年":17185,"明太祖":17186,"是很":17187,"是新":17188,"是中華民國":17189,"更名":17190,"書的":17191,"最好":17192,"期待":17193,"東三省":17194,"東帝汶":17195,"校址":17196,"格納":17197,"正如":17198,"正比":17199,"比喻":17200,"民事":17201,"水汽":17202,"水深":17203,"深水":17204,"淹沒":17205,"清除":17206,"測定":17207,"濕度":17208,"為代表":17209,"為核心":17210,"烏爾":17211,"牠們":17212,"理浩":17213,"生日":17214,"的全":17215,"的州":17216,"的製作":17217,"的節目":17218,"的形狀":17219,"監管":17220,"石墨":17221,"研製":17222,"祈禱":17223,"祖國":17224,"秦漢":17225,"稱讚":17226,"罪名":17227,"耶律":17228,"與外":17229,"舉例":17230,"藥品":17231,"襄陽":17232,"西敏":17233,"西羅馬帝國":17234,"親屬":17235,"譬如":17236,"護衛":17237,"起到":17238,"趙匡胤":17239,"軍方":17240,"軍機":17241,"轉殖":17242,"金像":17243,"金國":17244,"鑄造":17245,"雙層":17246,"零下":17247,"馬尼":17248,"鮮明":17249,"麥理浩":17250,"黎巴嫩":17251,"黑暗":17252,"哪一國的":17253,"中國傳統":17254,"中國東北":17255,"16個":17256,"什麼樣":17257,"地區是":17258,"大學堂":17259,"30萬":17260,"主要在":17261,"第一代":17262,"國際組織":17263,"國際關係":17264,"運動中":17265,"中央軍事委員會":17266,"臺灣海峽":17267,"行政督察":17268,"中的什麼":17269,"是在哪個":17270,"591":17271,"594":17272,"671":17273,"672":17274,"工作者":17275,"鐵路的":17276,"這一點":17277,"最後被":17278,"共產國際":17279,"654":17280,"656":17281,"782":17282,"地位的":17283,"逐漸被":17284,"佛教的":17285,"12月25日":17286,"1880年":17287,"阿拉伯半島":17288,"軌道交通":17289,"平原的":17290,"民主黨人":17291,"這是因為":17292,"於何年爆發":17293,"在2010年":17294,"是中國歷史上":17295,"共和黨人":17296,"地理學":17297,"神戶的":17298,"儘管如此":17299,"斯拉夫人":17300,"在這裏":17301,"的高等":17302,"觀察到":17303,"高級中學":17304,"畢業於":17305,"美國總統選舉":17306,"阿里不哥":17307,"消費者":17308,"公立大學":17309,"諾貝爾獎":17310,"山西省":17311,"足夠的":17312,"舊金山和約":17313,"芝加哥大學":17314,"歐洲國家盃":17315,"礦產資源":17316,"十月革命":17317,"有利於":17318,"君主立憲制":17319,"JR東海":17320,"新罕布夏州":17321,"亞利桑那州":17322,"的原住民":17323,"史密斯":17324,"明尼蘇達":17325,"光合作用":17326,"威斯康辛":17327,"汪精衛":17328,"5公里":17329,"768":17330,"790":17331,"8萬":17332,"8世紀":17333,"969":17334,"TV":17335,"丁格":17336,"三峽":17337,"三條":17338,"下一":17339,"不下":17340,"不用":17341,"主食":17342,"之國":17343,"也與":17344,"也被稱為":17345,"事項":17346,"交由":17347,"亦被":17348,"代行":17349,"伯明":17350,"來稱呼":17351,"全力":17352,"兩派":17353,"兩縣":17354,"創下":17355,"勝負":17356,"勳章":17357,"化物":17358,"北條":17359,"千萬":17360,"協和":17361,"去了":17362,"參數":17363,"參照":17364,"取而":17365,"古柏":17366,"同日":17367,"和南部":17368,"和非洲":17369,"噪音":17370,"四五":17371,"四分之一":17372,"國會議員":17373,"在對":17374,"在長":17375,"報名":17376,"塞內":17377,"增大":17378,"大隊":17379,"大將軍":17380,"太保":17381,"奧陶":17382,"子弟":17383,"學中":17384,"定爲":17385,"尼克森":17386,"居多":17387,"常有":17388,"幼兒":17389,"幾天":17390,"底層":17391,"形體":17392,"很深":17393,"後由":17394,"感受":17395,"感情":17396,"成人":17397,"戰績":17398,"扭轉":17399,"挖掘":17400,"改元":17401,"改成":17402,"放寬":17403,"政令":17404,"於公元前":17405,"於2007年":17406,"於2006年":17407,"是基於":17408,"晶格":17409,"更進一步":17410,"最小的":17411,"有一種":17412,"東路":17413,"東突厥":17414,"桂林":17415,"正好":17416,"歸納":17417,"毛皮":17418,"決裂":17419,"法和":17420,"浪費":17421,"混淆":17422,"溫差":17423,"溶解":17424,"火燒":17425,"烏梁":17426,"瓦拉":17427,"病人":17428,"白軍":17429,"百強":17430,"的為":17431,"的交通":17432,"的部隊":17433,"的表面":17434,"的分析":17435,"監控":17436,"破產":17437,"硬體":17438,"祖師":17439,"立的":17440,"等地區":17441,"管道":17442,"約2":17443,"維吉":17444,"羊膜":17445,"羣體":17446,"而生":17447,"與蘇聯":17448,"船員":17449,"英宗":17450,"蒙哥":17451,"裕固":17452,"該省":17453,"豪華":17454,"貝克":17455,"賽爾":17456,"軌電車":17457,"近日點":17458,"通勤":17459,"都曾":17460,"野心":17461,"陳氏":17462,"韃靼":17463,"首創":17464,"2014":17465,"1080":17466,"00人":17467,"地區在":17468,"香港市民":17469,"香港主權移交":17470,"主要來自":17471,"日本和":17472,"城市中":17473,"研究和":17474,"政治委員":17475,"其他人":17476,"出現過":17477,"教育機構":17478,"學院和":17479,"這個名字":17480,"592":17481,"596":17482,"577":17483,"678":17484,"支持下":17485,"方式來":17486,"662":17487,"663":17488,"他的兒子":17489,"多少公里":17490,"都是以":17491,"一直在":17492,"改革的":17493,"561":17494,"設計師":17495,"電影節":17496,"洛陽的":17497,"軌道上":17498,"1879年":17499,"古代的":17500,"移民到":17501,"集中營":17502,"條件下":17503,"紀念館":17504,"國立臺灣":17505,"地理上":17506,"總部設在":17507,"馬克思主義者":17508,"中原地區":17509,"三國志":17510,"提高了":17511,"簽署的":17512,"一定程度上":17513,"經濟學人":17514,"生命的":17515,"的支持下":17516,"關東地方":17517,"引入了":17518,"議題上":17519,"政務司":17520,"開創了":17521,"安徽省":17522,"東鐵綫":17523,"足利義":17524,"希臘化時代":17525,"壓倒性":17526,"甲骨文":17527,"極權主義":17528,"有助於":17529,"玄武岩":17530,"史克威爾艾尼克斯":17531,"陸戰隊":17532,"亞伯拉罕":17533,"417":17534,"446":17535,"510":17536,"6萬":17537,"890":17538,"899":17539,"988":17540,"ik":17541,"一下":17542,"三軍":17543,"上所":17544,"不存在":17545,"不確定":17546,"中發現":17547,"人眼":17548,"人群":17549,"他說":17550,"但被":17551,"但沒有":17552,"來港":17553,"修士":17554,"倉庫":17555,"充沛":17556,"克文":17557,"全區":17558,"兩家":17559,"八戶":17560,"公益":17561,"其主要":17562,"初中":17563,"前途":17564,"副主任":17565,"劇烈":17566,"區劃":17567,"區為":17568,"南與":17569,"南遷":17570,"史家":17571,"合計":17572,"同為":17573,"呂宋":17574,"和在":17575,"和非":17576,"和管理":17577,"商圈":17578,"商學院":17579,"國事":17580,"在地":17581,"在俄羅斯":17582,"在中世紀":17583,"地支":17584,"城鄉":17585,"場的":17586,"外圍":17587,"多條":17588,"大甲":17589,"奇幻":17590,"奈米":17591,"她們":17592,"婚禮":17593,"安條":17594,"安大略":17595,"崇禧":17596,"巡迴":17597,"帶的":17598,"建華":17599,"張專輯":17600,"彭定":17601,"心肌":17602,"思潮":17603,"急速":17604,"恐懼":17605,"所帶來的":17606,"指稱":17607,"收看":17608,"散布":17609,"文官":17610,"於2012年":17611,"既有":17612,"明宗":17613,"時在":17614,"時才":17615,"有過":17616,"有機會":17617,"本屆":17618,"李克":17619,"李氏":17620,"松江":17621,"條紋":17622,"歐巴馬":17623,"波的":17624,"海港":17625,"消化":17626,"減低":17627,"渡渡":17628,"渡過":17629,"湧入":17630,"潮濕":17631,"無效":17632,"理宗":17633,"由國家":17634,"症狀":17635,"白崇禧":17636,"的德國":17637,"的戰略":17638,"的不滿":17639,"的名義":17640,"皇太極":17641,"神兒":17642,"科的":17643,"約定":17644,"結成":17645,"結晶":17646,"締結":17647,"缺點":17648,"羅湖":17649,"而與":17650,"而聞名":17651,"職工":17652,"自足":17653,"與文化":17654,"興奮":17655,"葉子":17656,"薛丁格":17657,"蘇軾":17658,"處罰":17659,"號為":17660,"被捕":17661,"被用來":17662,"製成的":17663,"西海岸":17664,"詞語":17665,"語支":17666,"變形":17667,"變更":17668,"趁機":17669,"跨國":17670,"跳水":17671,"躲避":17672,"軍備":17673,"軍營":17674,"轉寫":17675,"退回":17676,"運轉":17677,"選項":17678,"邊區":17679,"部電影":17680,"里克":17681,"重疊":17682,"金銀":17683,"金馬":17684,"雲山":17685,"靈感":17686,"風光":17687,"風暴":17688,"馬關條約":17689,"骨幹":17690,"高新技術":17691,"鳳凰":17692,"黨政":17693,"世界大學":17694,"第一名":17695,"成為世界":17696,"人口數":17697,"戰爭和":17698,"代表了":17699,"第二位":17700,"行政權":17701,"自由主義的":17702,"民主化":17703,"革命軍事委員會":17704,"生物燃料":17705,"573":17706,"生產基地":17707,"最高氣溫":17708,"中華人民共和國成立":17709,"希臘文":17710,"哪一種語言":17711,"這一名稱":17712,"事件之後":17713,"773":17714,"多少平方公里":17715,"海軍的":17716,"很多人":17717,"參與者":17718,"1873年":17719,"居住於":17720,"1857年":17721,"曾經是":17722,"衛星電視":17723,"希望能":17724,"分類法":17725,"狀態下":17726,"風格的":17727,"報告中":17728,"臺北縣":17729,"英格蘭的":17730,"所在的":17731,"觀測到":17732,"巴西利亞":17733,"無政府主義的":17734,"快速發展":17735,"對外開放":17736,"占領了":17737,"在哪一場戰爭":17738,"名義上":17739,"查理曼":17740,"在北美":17741,"擴展到":17742,"江西省":17743,"的領導下":17744,"看作是":17745,"棲息地":17746,"懸浮微粒":17747,"排行榜":17748,"前所未有的":17749,"阿薩德":17750,"菲利普":17751,"亞特蘭大":17752,"導火線":17753,"蘇伊士運河":17754,"德肋撒":17755,"取而代之":17756,"烏梁海":17757,"4萬":17758,"447":17759,"433":17760,"879":17761,"HD":17762,"ir":17763,"三天":17764,"上古":17765,"不了":17766,"中西部":17767,"主觀":17768,"九十":17769,"也以":17770,"也因為":17771,"交州":17772,"他以":17773,"以示":17774,"住房":17775,"侍郎":17776,"保有":17777,"倖存":17778,"假名":17779,"偉大":17780,"優美":17781,"優質":17782,"克修斯":17783,"兒女":17784,"全盛":17785,"兩類":17786,"切斷":17787,"列傳":17788,"列表":17789,"前燕":17790,"加之":17791,"北愛爾蘭":17792,"十個":17793,"協會的":17794,"南征":17795,"即時":17796,"取締":17797,"古蘭經":17798,"只會":17799,"史上的":17800,"和小":17801,"和解":17802,"和阿":17803,"唐努":17804,"四處":17805,"因應":17806,"圖片":17807,"在華":17808,"在被":17809,"執法":17810,"執照":17811,"夏侯":17812,"大門":17813,"妖怪":17814,"姊妹":17815,"學費":17816,"安定":17817,"富商":17818,"就已":17819,"尼克":17820,"屋大維":17821,"帶到":17822,"干支":17823,"度和":17824,"從什麼時候開始":17825,"微博":17826,"性地":17827,"情節":17828,"懷柔":17829,"打造":17830,"扶持":17831,"投奔":17832,"投訴":17833,"投靠":17834,"拿巴":17835,"指令":17836,"掉了":17837,"支部":17838,"於什麼":17839,"於哪個":17840,"於2011年":17841,"日趨":17842,"時區":17843,"時為":17844,"時由於":17845,"晉級":17846,"曝光":17847,"更名爲":17848,"核子":17849,"格羅":17850,"槍械":17851,"樞機":17852,"樹林":17853,"此處":17854,"此時的":17855,"死去":17856,"毀壞":17857,"民航":17858,"永曆":17859,"河中":17860,"波希":17861,"渦輪":17862,"濫用":17863,"熱量":17864,"猶他":17865,"玄菟":17866,"現役":17867,"用手":17868,"甲烷":17869,"男人":17870,"發的":17871,"百餘":17872,"的可":17873,"的論":17874,"的成功":17875,"的規模":17876,"的市場":17877,"的風格":17878,"的手段":17879,"的顏色":17880,"的目的是":17881,"皈依":17882,"目的地":17883,"礦石":17884,"神學家":17885,"稍微":17886,"竣工":17887,"籍的":17888,"經國":17889,"羅姆":17890,"美利堅":17891,"羣衆":17892,"而其":17893,"聖人":17894,"致命":17895,"與德國":17896,"與俄羅斯":17897,"舒梅克":17898,"英王":17899,"西米":17900,"西貢":17901,"要在":17902,"託管":17903,"該城":17904,"該年":17905,"讀者":17906,"賄賂":17907,"賓諾":17908,"轉入":17909,"農田":17910,"迪亞":17911,"運送":17912,"過境":17913,"遠遠":17914,"金球":17915,"鐵的":17916,"開學":17917,"開頭":17918,"除去":17919,"陸克文":17920,"離心":17921,"類別":17922,"馬上":17923,"高郵":17924,"2015":17925,"1800":17926,"什麼是":17927,"美國憲法":17928,"經濟危機":17929,"經濟作物":17930,"發展成為":17931,"運動會的":17932,"羅馬的":17933,"羅馬教廷":17934,"許多國家":17935,"歐洲冠軍":17936,"全國各地":17937,"總統的":17938,"604":17939,"704":17940,"面積達":17941,"675":17942,"677":17943,"工作人員":17944,"領導下":17945,"鐵路局":17946,"蒙古人民共和國":17947,"多少人":17948,"反對者":17949,"最早可以追溯至":17950,"後來在":17951,"工程學":17952,"為了要":17953,"也有許多":17954,"土地的":17955,"當地居民":17956,"範圍的":17957,"第二次國共內戰":17958,"山脈的":17959,"有些人":17960,"事務的":17961,"反應爐":17962,"尤其是在":17963,"不久後":17964,"發達的":17965,"多明尼加的":17966,"專門學校":17967,"ind":17968,"滅亡後":17969,"相互作用":17970,"文獻中":17971,"以南的":17972,"有機物":17973,"第二大城市":17974,"師範學堂":17975,"波音公司":17976,"泰晤士報":17977,"美國國家航空暨太空總署":17978,"繁忙的":17979,"波爾多":17980,"四庫全書":17981,"專修科":17982,"安條克":17983,"439":17984,"520":17985,"769":17986,"798":17987,"ak":17988,"上漲":17989,"不包括":17990,"不相同":17991,"不一定":17992,"中毒":17993,"乘機":17994,"也稱":17995,"了多久":17996,"亞那":17997,"代管":17998,"以2":17999,"以內":18000,"但因為":18001,"傑出":18002,"全忠":18003,"公營":18004,"兵役":18005,"典籍":18006,"分辨":18007,"分界線":18008,"創校":18009,"劉邦":18010,"加特":18011,"南半球":18012,"又可以":18013,"受損":18014,"口的":18015,"古文":18016,"同名":18017,"同比":18018,"同胞":18019,"和高":18020,"和西班牙":18021,"回紇":18022,"國中":18023,"國徽":18024,"在高":18025,"在民國":18026,"在巴黎":18027,"堅守":18028,"士丁":18029,"大正":18030,"大綱":18031,"奧軍":18032,"守將":18033,"家口":18034,"專線":18035,"導向":18036,"少將":18037,"巡視":18038,"幾百":18039,"廣電":18040,"引致":18041,"強勢":18042,"德利":18043,"慶典":18044,"戰車":18045,"才是":18046,"技能":18047,"抵制":18048,"拉底":18049,"掃描":18050,"接見":18051,"接連":18052,"推斷":18053,"數年":18054,"新型":18055,"新法":18056,"於2000年":18057,"昔日":18058,"星星":18059,"是非":18060,"是利用":18061,"普法":18062,"暖化":18063,"最接近":18064,"最南端":18065,"會與":18066,"有二":18067,"有時候":18068,"有史以來":18069,"服飾":18070,"未被":18071,"核電":18072,"梵文":18073,"沙灘":18074,"河東":18075,"治所":18076,"流程":18077,"海盜":18078,"海平面":18079,"滬寧":18080,"濕地":18081,"無需":18082,"瑞克":18083,"發酵":18084,"發拉底":18085,"白馬":18086,"的詩":18087,"的其中":18088,"的發生":18089,"的現代":18090,"的主張":18091,"的女性":18092,"的意義":18093,"的方向":18094,"的故事":18095,"皆有":18096,"監獄":18097,"相接":18098,"科羅拉":18099,"稠密":18100,"第緒":18101,"筆記":18102,"紅旗":18103,"紅十字":18104,"累計":18105,"統戰":18106,"美學":18107,"職棒":18108,"與水":18109,"航天":18110,"英方":18111,"苻堅":18112,"草地":18113,"衛視":18114,"裏面":18115,"西向東":18116,"要比":18117,"見解":18118,"記述":18119,"詞曲":18120,"該國的":18121,"諾斯":18122,"費米":18123,"資深":18124,"較長":18125,"運往":18126,"過多":18127,"部將":18128,"門徒":18129,"陪同":18130,"階梯":18131,"頂峰":18132,"頗有":18133,"風雲":18134,"體驗":18135,"鴻章":18136,"10世紀":18137,"1000年":18138,"1700":18139,"政治人物":18140,"政治經濟學":18141,"第二屆":18142,"德國人":18143,"德國在":18144,"地方行政":18145,"方面軍":18146,"的人員":18147,"的人是誰":18148,"1940年代":18149,"702":18150,"軍事力量":18151,"中華人民共和國的":18152,"蒙古軍":18153,"中華民國憲法":18154,"生活方式":18155,"自然環境":18156,"787":18157,"上海匯豐銀行":18158,"第三代":18159,"8月1日":18160,"學生的":18161,"土地改革":18162,"平均每":18163,"最終於":18164,"相對的":18165,"足球比賽":18166,"勢力範圍":18167,"世界上最":18168,"投票權":18169,"拿破崙三世":18170,"幾乎所有":18171,"部門的":18172,"至今日":18173,"價值觀":18174,"漢語拼音":18175,"資本家":18176,"描述了":18177,"生態學":18178,"烏克蘭人":18179,"傳播到":18180,"推動了":18181,"不再是":18182,"延伸到":18183,"ing":18184,"財產權":18185,"明確的":18186,"頒布的":18187,"注意到":18188,"傳入中國":18189,"有機化合物":18190,"佛羅倫斯":18191,"里達梯":18192,"發揮了":18193,"涵蓋了":18194,"哪一條河":18195,"四季分明":18196,"克里斯蒂安":18197,"真核生物":18198,"可追溯至":18199,"等同於":18200,"加利福尼亞州":18201,"寡頭政治":18202,"有別於":18203,"可延伸標記式語言":18204,"科科斯":18205,"彭定康":18206,"渡渡鳥":18207,"1號":18208,"1世紀":18209,"550":18210,"6世紀":18211,"788":18212,"km":18213,"一文":18214,"一舉":18215,"一道":18216,"上環":18217,"並獲得":18218,"中使用":18219,"中美洲":18220,"中南海":18221,"也隨之":18222,"亦可":18223,"人稱":18224,"任免":18225,"但隨著":18226,"信念":18227,"修行":18228,"倡議":18229,"做出了":18230,"傳授":18231,"充當":18232,"先前":18233,"光害":18234,"內燃":18235,"全島":18236,"共振":18237,"出資":18238,"初選":18239,"別人":18240,"北與":18241,"原屬":18242,"又是":18243,"台北市":18244,"同屬":18245,"同等":18246,"名譽":18247,"君王":18248,"告訴":18249,"和哪個":18250,"和俄羅斯":18251,"四方":18252,"國界":18253,"圖瓦":18254,"土改":18255,"在今":18256,"在16":18257,"在1997年":18258,"地標":18259,"場景":18260,"多塞":18261,"大爆炸":18262,"奧斯特":18263,"妊神星":18264,"子午":18265,"安地":18266,"完美":18267,"家園":18268,"寫信":18269,"屍體":18270,"常規":18271,"幾十年":18272,"建構":18273,"得多":18274,"微波":18275,"微生物":18276,"徵收":18277,"患有":18278,"意第緒":18279,"所建立":18280,"才有":18281,"才得以":18282,"抒情":18283,"抗衡":18284,"拉美":18285,"招募":18286,"拿下":18287,"捍衛":18288,"捲入":18289,"接待":18290,"撒克遜":18291,"撤軍":18292,"改國號":18293,"敗給":18294,"文宗":18295,"文憑":18296,"斯里":18297,"斯洛伐克":18298,"新一":18299,"於16":18300,"於2010年":18301,"日俄":18302,"旺角":18303,"易於":18304,"易經":18305,"時將":18306,"更早":18307,"最小":18308,"最遠":18309,"朱全忠":18310,"查士丁":18311,"模糊":18312,"橫貫":18313,"檢驗":18314,"正值":18315,"每個人":18316,"法制":18317,"法師":18318,"波拿巴":18319,"清理":18320,"渡江":18321,"湯姆":18322,"漫畫":18323,"無疑":18324,"牙齒":18325,"牛奶":18326,"牽制":18327,"瓦夫":18328,"瓦特":18329,"甘地":18330,"生肖":18331,"白天":18332,"的下":18333,"的公司":18334,"的產生":18335,"的學者":18336,"的貢獻":18337,"直系":18338,"矮行星":18339,"神職人員":18340,"等國家":18341,"精緻":18342,"紅衛兵":18343,"維斯":18344,"編寫":18345,"縣廳":18346,"美軍的":18347,"而又":18348,"而產生的":18349,"聘請":18350,"聽從":18351,"肺部":18352,"臺後":18353,"舞曲":18354,"舟山":18355,"花卉":18356,"茅利塔尼亞":18357,"華中":18358,"董建華":18359,"衆議院":18360,"衰變":18361,"西蒙":18362,"西南部的":18363,"觀衆":18364,"詔書":18365,"該組織":18366,"誅殺":18367,"論的":18368,"諸部":18369,"警隊":18370,"變換":18371,"販賣":18372,"路口":18373,"身為":18374,"軍務":18375,"輕工業":18376,"還不":18377,"還可以":18378,"還擁有":18379,"郭子":18380,"酸鹽":18381,"醫師":18382,"釋迦":18383,"鐵磁性":18384,"長壽":18385,"開墾":18386,"開皇":18387,"雜交":18388,"雨季":18389,"韋伯":18390,"額外":18391,"顯然":18392,"飯店":18393,"駐華":18394,"魯斯":18395,"龜山":18396,"哪一項":18397,"中國工農紅軍":18398,"14個":18399,"世界自然":18400,"社會運動":18401,"共和制":18402,"其中最":18403,"羅馬城":18404,"重要作用":18405,"歐洲議會":18406,"自由意志":18407,"面積最大的":18408,"自己是":18409,"目前已":18410,"最後一位":18411,"多少比例":18412,"得到的":18413,"1891年":18414,"超過1":18415,"交通運輸":18416,"負責管理":18417,"權力機關":18418,"加入聯合國":18419,"阿拉伯世界":18420,"軌道的":18421,"1872年":18422,"學的研究":18423,"集團的":18424,"的一個重要":18425,"阿爾弗雷德":18426,"另一項":18427,"太空梭":18428,"世界上最大的":18429,"嚴重破壞":18430,"於1945年":18431,"古典時代":18432,"原子彈":18433,"顯示出":18434,"越南語":18435,"橫濱市的":18436,"普通法":18437,"計算出":18438,"採取了":18439,"原本的":18440,"爭議的":18441,"第二次世界大戰後":18442,"的水平":18443,"大連市":18444,"石器時代的":18445,"德里克":18446,"突厥人":18447,"延邊朝鮮族":18448,"消滅了":18449,"心臟病":18450,"印尼語":18451,"布拉格":18452,"百科全書":18453,"嘉義市":18454,"摩擦力":18455,"神奈川":18456,"特魯希略":18457,"卡內基梅隆":18458,"實證主義":18459,"古拉索島":18460,"爬行動物":18461,"模特兒":18462,"圖西族":18463,"伺服器":18464,"伊兒汗國":18465,"萊布尼茨":18466,"定格動畫":18467,"塞內加爾":18468,"512":18469,"537":18470,"5萬人":18471,"977":18472,"979":18473,"II":18474,"VA":18475,"ill":18476,"、「":18477,"」「":18478,"一向":18479,"一艘":18480,"三層":18481,"三路":18482,"三疊紀":18483,"上座部":18484,"不明":18485,"不見":18486,"並將其":18487,"也不能":18488,"亦在":18489,"任意":18490,"伴奏":18491,"但這些":18492,"依次":18493,"信長":18494,"修飾":18495,"催化":18496,"僅限於":18497,"光度":18498,"兩路":18499,"兩國的":18500,"兵敗":18501,"刊登":18502,"到香港":18503,"副部長":18504,"劃為":18505,"劇本":18506,"劉表":18507,"北站":18508,"區分為":18509,"半山":18510,"卓越":18511,"占了":18512,"占地":18513,"口頭":18514,"古吉":18515,"只需":18516,"可用":18517,"可用於":18518,"史丹":18519,"售票":18520,"啟發":18521,"國名":18522,"國與":18523,"士族":18524,"壯語":18525,"外出":18526,"多位":18527,"多國的":18528,"大為":18529,"大法官":18530,"天主":18531,"妊娠":18532,"妹妹":18533,"存有":18534,"它與":18535,"將之":18536,"少於":18537,"崇尚":18538,"巴克":18539,"建康":18540,"從中":18541,"微分":18542,"成宗":18543,"所殺":18544,"托夫":18545,"拉姆":18546,"揭露":18547,"搬遷":18548,"攻城":18549,"攻滅":18550,"新宿":18551,"於2009年":18552,"旅程":18553,"旅順":18554,"明廷":18555,"是可以":18556,"是出自":18557,"普朗":18558,"會計":18559,"會影響":18560,"朝聖":18561,"李登":18562,"束縛":18563,"板橋":18564,"架飛機":18565,"根源":18566,"梧州":18567,"榮獲":18568,"檸檬":18569,"歌詞":18570,"汗國的":18571,"河水":18572,"泡沫":18573,"浦路":18574,"海路":18575,"混血":18576,"港區":18577,"溥儀":18578,"漢傳佛教":18579,"激發":18580,"濃縮":18581,"濱海":18582,"炮兵":18583,"為中心的":18584,"熊本":18585,"物業":18586,"特產":18587,"狀元":18588,"獎章":18589,"異性":18590,"當代的":18591,"白宮":18592,"的五":18593,"的單":18594,"的遺":18595,"的文學":18596,"的領域":18597,"的消息":18598,"禮堂":18599,"稅務":18600,"等為":18601,"節省":18602,"簽字":18603,"系的":18604,"紅海":18605,"統制":18606,"維他":18607,"綱要":18608,"與他":18609,"蘇區":18610,"街上":18611,"街頭":18612,"西側":18613,"西臺":18614,"西與":18615,"視野":18616,"該黨":18617,"諸塞":18618,"議和":18619,"買下":18620,"軍中":18621,"軍力":18622,"軍長":18623,"逐年":18624,"遊說":18625,"錫伯":18626,"門下":18627,"降至":18628,"際公路":18629,"隸書":18630,"雅爾":18631,"離島":18632,"雨林":18633,"電離":18634,"非正式":18635,"面貌":18636,"風能":18637,"風速":18638,"2016":18639,"中國文化":18640,"0000":18641,"政府單位":18642,"美國和":18643,"可以是":18644,"成為當時":18645,"社會中":18646,"國際法":18647,"代表著":18648,"在哪一年代":18649,"在哪一年誕生":18650,"自由市場":18651,"發生過":18652,"601":18653,"602":18654,"607":18655,"民族主義者":18656,"701":18657,"709":18658,"管理區":18659,"管理機構":18660,"理論家":18661,"679":18662,"統治下的":18663,"的大規模":18664,"蒙古語":18665,"反對黨":18666,"北部地區":18667,"781":18668,"逐漸成為":18669,"5月1日":18670,"752":18671,"地球上的":18672,"統一中國":18673,"電子的":18674,"毛澤東思想":18675,"1月7日":18676,"直接向":18677,"市場上":18678,"761":18679,"1883年":18680,"相當大的":18681,"的影響下":18682,"是一項":18683,"指的是甚麼":18684,"義大利語":18685,"有一定的":18686,"基因轉殖":18687,"目標是":18688,"財政收入":18689,"有時會":18690,"港口城市":18691,"葡萄牙人":18692,"九龍城":18693,"高等學府":18694,"實際上是":18695,"不僅是":18696,"合法化":18697,"二戰期間":18698,"即使是":18699,"青森縣的":18700,"的支持者":18701,"移交給":18702,"帶領下":18703,"博士學位":18704,"所屬的":18705,"自古以來":18706,"私立大學":18707,"游擊隊":18708,"佛羅里達州":18709,"山水畫":18710,"李成桂":18711,"伊利諾大學":18712,"世界摔角聯盟":18713,"蓬勃發展":18714,"由於哪個原因":18715,"金像獎":18716,"科羅拉多":18717,"李登輝":18718,"530":18719,"540":18720,"9世紀":18721,"ap":18722,"不許":18723,"不顧":18724,"不超過":18725,"並建立":18726,"中記載":18727,"主政":18728,"享年":18729,"但最終":18730,"佛寺":18731,"使人":18732,"侵害":18733,"個性":18734,"債務":18735,"僅存":18736,"內斯":18737,"內涵":18738,"全數":18739,"兩制":18740,"八達":18741,"其弟":18742,"冒險":18743,"出使":18744,"出征":18745,"刊物":18746,"北側":18747,"南寧":18748,"南美":18749,"卡梅":18750,"受害":18751,"各有":18752,"合稱為":18753,"同期":18754,"和建築":18755,"哈耶克":18756,"四千":18757,"團的":18758,"在其他":18759,"在不同的":18760,"在國會":18761,"在海外":18762,"均勻":18763,"垃圾":18764,"外科":18765,"大業":18766,"大膽":18767,"央廣":18768,"孟子":18769,"安娜":18770,"安理會":18771,"官府":18772,"尼羅":18773,"層級":18774,"差不多":18775,"廣大的":18776,"強行":18777,"後因":18778,"得拉":18779,"性原理":18780,"成效":18781,"戰後的":18782,"抨擊":18783,"拉夫":18784,"推算":18785,"擔憂":18786,"攝像":18787,"料理":18788,"新鄭":18789,"於民國":18790,"於1949年":18791,"族裔":18792,"明文":18793,"星球":18794,"是大":18795,"是古代":18796,"更具":18797,"曾任":18798,"有密切":18799,"東坡":18800,"東至":18801,"格里斯":18802,"業餘":18803,"欣賞":18804,"毒品":18805,"比起":18806,"民兵":18807,"民盟":18808,"污水":18809,"油田":18810,"法學":18811,"海因":18812,"海面":18813,"淵源":18814,"清豐":18815,"渴望":18816,"潮流":18817,"火藥":18818,"特和":18819,"班次":18820,"生前":18821,"的文":18822,"的本":18823,"的鐵":18824,"的學校":18825,"的程度":18826,"的壓力":18827,"的立場":18828,"直升":18829,"硫磺":18830,"立信":18831,"立為":18832,"等其他":18833,"精銳":18834,"緣故":18835,"縣為":18836,"繁盛":18837,"織田":18838,"缺陷":18839,"群的":18840,"聯手":18841,"背後":18842,"臣民":18843,"臺幣":18844,"與中華人民共和國":18845,"菲爾德":18846,"蘭卡":18847,"裏海":18848,"補償":18849,"製片":18850,"診斷":18851,"認證":18852,"起因":18853,"路的":18854,"近現代":18855,"迪遜":18856,"逃避":18857,"途經":18858,"這就":18859,"這座":18860,"這與":18861,"道格拉斯":18862,"遙遠":18863,"都很":18864,"都位於":18865,"鄴城":18866,"金軍":18867,"銅錢":18868,"門檻":18869,"開了":18870,"開業":18871,"阿聯":18872,"陝北":18873,"陰陽":18874,"雅利安":18875,"雨水":18876,"靜脈":18877,"韓愈":18878,"願望":18879,"麥迪遜":18880,"哪一方":18881,"國家是":18882,"開始時":18883,"香港上海匯豐銀行":18884,"主要城市":18885,"0年的":18886,"第一書記":18887,"研究小組":18888,"進行過":18889,"國際足球":18890,"行政機構":18891,"印度人":18892,"這些人":18893,"工業園區":18894,"609":18895,"這個問題":18896,"可能的":18897,"705":18898,"動物命名":18899,"674":18900,"802":18901,"這一時期的":18902,"蒙古族":18903,"並且將":18904,"細胞質":18905,"北部和":18906,"導致的":18907,"983":18908,"人類學":18909,"785":18910,"751":18911,"統一了":18912,"電影院":18913,"重要的作用":18914,"764":18915,"1854年":18916,"在1917年":18917,"立法局":18918,"廣泛使用":18919,"古典主義":18920,"比例代表制":18921,"功能的":18922,"橫濱港":18923,"1841年":18924,"荷蘭人":18925,"排名第":18926,"方向的":18927,"應該是":18928,"狀況下":18929,"機械化":18930,"下降到":18931,"放棄了":18932,"經驗主義":18933,"加強了":18934,"定居點":18935,"隸屬於哪一個國家所管轄":18936,"七年戰爭":18937,"是屬於哪一種":18938,"拜仁慕尼黑":18939,"呼吸系統":18940,"湖北省":18941,"大公國":18942,"閩南語":18943,"教科書":18944,"江戶時代":18945,"歸類為":18946,"耕地面積":18947,"藩鎮割據":18948,"鎌倉幕府":18949,"可追溯到":18950,"自給自足":18951,"漢藏語系":18952,"伊比利亞半島":18953,"風景名勝區":18954,"歐陽修":18955,"阿姆斯特丹":18956,"3世紀":18957,"650":18958,"720":18959,"il":18960,"ter":18961,"一世紀":18962,"三者":18963,"三軍團":18964,"上層":18965,"下野":18966,"不和":18967,"不復":18968,"不止":18969,"中止":18970,"之旅":18971,"事的":18972,"五次":18973,"亦即":18974,"亦會":18975,"仙台":18976,"伊莉":18977,"伏特":18978,"倭寇":18979,"假期":18980,"偷襲":18981,"儘量":18982,"克拉克":18983,"兩江":18984,"兩項":18985,"初始":18986,"創刊":18987,"創意":18988,"劇情":18989,"功率":18990,"匯合":18991,"卡達":18992,"即有":18993,"原因為":18994,"又稱爲":18995,"史賓諾":18996,"呂布":18997,"告知":18998,"哀牢":18999,"哪方面":19000,"啟示":19001,"善於":19002,"嚴寒":19003,"四位":19004,"在下":19005,"在175":19006,"在1960年代":19007,"在地球上":19008,"地峽":19009,"地那":19010,"均由":19011,"城外":19012,"場戰役":19013,"外形":19014,"外觀":19015,"大麥":19016,"失蹤":19017,"夷陵":19018,"孔多塞":19019,"安區":19020,"安培":19021,"官制":19022,"對他的":19023,"少量的":19024,"屏障":19025,"帝位":19026,"常任":19027,"廣為":19028,"弱的":19029,"後會":19030,"想像":19031,"想到":19032,"戊戌":19033,"所著":19034,"打倒":19035,"扶植":19036,"拋棄":19037,"拖延":19038,"提克":19039,"操縱":19040,"改由":19041,"改名爲":19042,"文教":19043,"新北":19044,"斷層":19045,"於2013年":19046,"是因":19047,"是自":19048,"晉升":19049,"普利":19050,"暫行":19051,"最熱":19052,"最受歡迎":19053,"會子":19054,
[...]
